#version: 0.2
d e
Ġ de
e n
č Ċ
Ġ l
e s
c i
o s
Ġ p
Ġ a
o n
Ġl a
Ġ c
e r
a r
Ġ s
Ã ³
o r
Ġ e
Ã³ n
a d
Ġ čĊ
a s
a l
r e
en t
i n
a n
ci Ã³n
t i
Ġ en
Ġe l
u e
d i
Ġ y
Ġ m
u n
a ciÃ³n
Ġc on
q ue
t r
Ã Ń
Ġ que
r o
i d
Ã ¡
i c
i s
Ġde l
Ġl os
t o
Ġ E
o m
e c
Ġ C
t a
Ġ re
Ġs e
Ġ es
Ġ in
t e
Ġ o
Ġ n
Ġla s
r es
ci on
Ġ f
u l
Ġ D
Ġ A
d o
ad o
t er
Ġp ar
Ġ un
a m
Ġs u
Ġ L
Ġ P
Ġp ro
Ġ 1
- -
ent e
b l
i m
Ġ h
cion es
u r
Ġ S
Ġp or
Ã ©
o l
Ġ di
ti v
Ġc om
Ġ 2
Ġa l
Ġ v
ar i
0 0
id ad
ent o
t os
tr a
b i
or m
Ġpar a
i g
t u
i ci
al es
Ġa c
p l
c ul
t en
Ġ (
ad os
e m
ci a
Ġc u
d a
Ġe x
i Ã³n
i z
Ġ g
Ġn o
Ġ R
s t
b re
t ÃŃ
Ġp er
ad a
Ġ |
e g
Ġ I
t or
e di
r i
r a
Ã º
Ġ M
-- --
Ã ±
Ġ res
Ġ T
f ic
q u
s e
a ciones
Ġ d
ÃŃ a
Ġun a
tÃŃ cul
Ġa r
u c
m i
u es
Ġh a
u s
Ã¡ n
s p
Ġs o
ĠC on
re c
de n
i o
tÃŃcul o
Ġcon s
b a
Ġ G
l a
p e
de s
id a
Ġp res
u m
Ġa n
f orm
i t
O N
m in
bl e
Ġ t
l o
Ġde s
ĠD E
Ġes ta
ĠC om
Ġ b
Ġa p
Ġ N
Ġs er
c e
t es
Ġ 3
Ġl o
an te
Ġ ent
i r
Ġp re
ic a
j o
ti c
p er
i a
Ġ O
p or
Ġ U
ĠE l
i on
ad as
c l
Ġ tra
i l
T O
Ġ tr
ent es
Ġ j
ĠE n
Ġso bre
Ġ to
en cia
p res
Ġ .
Ġ F
Ġcom o
ĠL a
Ġin ter
an do
b r
m o
Ġp r
e l
Ġa s
p on
â Ģ
ar Ã¡
Ġ im
u er
id o
i v
Ġm edi
d uc
Ġar tÃŃculo
ĠE st
d os
ida des
t ado
t as
ci al
is iÃ³n
g r
p ues
os i
Ã¡ s
en er
Ġp a
d as
ari o
Ġc a
ad or
v en
A D
de r
C I
m a
Ġre c
i ento
er o
Ġ or
---- ----
f ec
Ġm a
g an
d ad
Ġde b
Ġe m
E N
E S
Ġo b
f er
9 9
t ar
Ġ2 00
tiv o
Ġ B
ter i
tiv a
Ġin form
f ici
A N
t ur
ent os
h o
Ġs i
Ġ ti
I G
cion al
j e
Ġ V
Â ł
p o
Ġ ci
Ġa pl
ig u
di c
Ġsu s
Ġp o
s on
Ġ 4
tr o
iz aciÃ³n
e y
Ġf in
p a
er a
Ġdi sp
ĠI n
ta m
Ġtra ba
ener al
ÃŃ s
g o
ĠU n
Ġse g
i b
E R
u ciÃ³n
Ġre g
mi ento
IG I
Ġ 5
Ġa d
Ġc as
es ti
min is
d r
Ġa u
am ente
ti tu
Ġm o
n a
Ġf orm
O S
Ġper son
h a
l am
ic o
Ġpar ti
ic aciÃ³n
IGI TO
qu i
Ġc or
p ar
A S
bi l
M I
ion es
i em
v ici
0 1
a c
ent a
ĠA r
Ġ r
t al
ĠD IGITO
Ġdi c
Ãº bl
c es
t aciÃ³n
Ġent re
Ġf un
ĠCon se
Ġde rec
ari a
ĠR e
igu i
Ġe fec
Ã© n
ĠL ey
Ġpre v
Ãº n
A R
Ġ âĢ
ci as
Ġ H
Ġ ten
Ġre al
ari os
Ġes te
m ente
Ã© s
c on
l e
id as
ĠConse jo
tiv os
2 00
h os
Ġ J
Ġs igui
m pl
ĠEst ado
l an
Ġs ol
Ġcon tra
ec es
ĠCom isiÃ³n
ĠE s
ti l
AD O
c a
Ġes t
r u
ro l
is mo
Ġp ue
c u
b or
Ġ 6
Ġm an
ci p
Ġe j
ti fic
ĠD e
Ġcas o
o ci
Ġ -
Ġtr an
p ec
ar rol
A L
Ġap ar
Ġser vici
Ġs in
Ġesta ble
Ġn eces
ĠG eneral
ĠR eg
ĠAr tÃŃculo
or es
Ġpro duc
i den
Ġ ter
Ġm Ã¡s
Ġc o
en s
Ġa Ã±
lam ento
ic as
v er
u ro
Ġac tiv
ec re
am iento
) ,
ĠP ar
Ġo tr
Ġn a
c o
cl u
Ġestable ci
ĠS e
en e
z a
uer do
id os
en do
Ġcom p
ar se
an tes
ĠP ro
is te
Ġpres ente
CI ON
Ġin s
bl es
Ġc ar
ĠL os
res pon
z o
n o
Ġn orm
Ġdes arrol
l as
Ġ u
gr am
Ġ te
I MI
Ġ 7
pues to
Ġpo dr
Ġes pe
Ġem pres
ur s
Ġcor respon
t in
ci o
Ġcom un
e x
Ġm ar
tic a
ec ciÃ³n
Ġ do
Ã³ m
ĠD i
Ġim por
Ġ 9
ĠL A
O R
c ri
c edi
Ġau tor
Ġcon tr
Ġ 8
ÃŃ as
) .
Ġm iem
v o
Ġre la
ic os
-------- --------
t ul
im iento
ol uciÃ³n
bil idad
Z ADO
C E
tiv as
l aciÃ³n
T I
g a
i fic
Ġapar tado
Ġ1 99
AN ON
IMI ZADO
ANON IMIZADO
ador es
Ġob je
Ġcons i
Ġm en
ĠA s
ter min
t ados
ci s
o g
Ġdi s
ari as
Ġtraba jo
Ġdeb er
Ġ 0
tur a
Ġor gan
ĠEst ados
Ġa b
ĠL as
Ġapl icaciÃ³n
em bre
Ġtraba j
Ġ Y
ur idad
bi er
Ġ1 9
y o
Ġ bi
ĠA d
ÃŃ o
Ġp Ãºbl
Ġpa ÃŃs
ĠReg lamento
ar es
osi ciÃ³n
Ã© c
c er
Ġcu al
c um
Ġf a
y ec
Ġtran s
Ġde termin
ib u
Ġsol ici
Ġpar te
m as
Ġ Â
m os
f es
Ġs al
Ġ1 0
minis tra
p i
di fic
Ġap ro
br os
s a
uro pe
ĠE N
Ġre f
st in
Ġin clu
Ġservici os
tr uc
Ġreal iz
Ġcom pe
as e
cion ales
ĠDi rec
Ġ da
ten cia
y a
en di
ce p
r an
Ġv e
ÃŃ n
Ġsu per
u g
Ġpr im
bi Ã©n
Ġac uerdo
i er
Ġ "
Ġm e
Ġpres ent
tic as
_ _
d u
m bi
Ġl eg
Ġc ada
er v
Ġdesarrol lo
ĠP or
minis tr
Ġcon form
Ġ Q
is i
Ġpro gram
Ġres pec
an ci
Ġac tu
Ġas ÃŃ
Ġcon di
ar Ã¡n
ĠE L
esti Ã³n
g u
Ġcu mpl
Ġinform aciÃ³n
Ġv al
Ġ [
Ġp ol
Ġs iste
an to
con Ã³m
Ġper ÃŃo
Ġp la
bl ec
pl e
Ġl e
Ġderec ho
Ġprev is
al idad
Ã©c n
or d
bl ig
um an
Ġpro cedi
T E
Ġm is
Ġu til
Ã© r
Ġmedi das
c an
Ġe v
r gan
Ġres ul
an ti
Ġp lan
I S
Ġesta blec
u d
I D
b er
ven ciÃ³n
Ġpro yec
Ġ /
Ġsu b
Ġn ue
Ġbi en
m an
ĠP R
Ġderec hos
Ġinter na
Ãº m
Ġv ig
g un
Ġex p
Ġd ur
Ġo per
Ġn i
teri or
Ġcu ando
Ġmiem bros
I C
p os
ĠCom un
Ġh an
m e
ent r
ec u
Ġcorrespon di
l os
Ġdi rec
un to
Ġc ol
an cia
j u
ĠE urope
Ġ tam
on es
Ġp osi
U E
Ġre pres
Ġo blig
ues to
Ġperson al
ces o
Ġm u
i or
ĠperÃŃo do
ĠN aciones
on a
or a
ĠP res
Â »
Ġde n
ĠUn idas
Ã© g
ci ales
m Ã¡s
Ġform a
Ġ Ã¡
Ġactiv idades
ec tor
in cip
tu d
al mente
j er
Ġres oluciÃ³n
Ġfin anci
1 99
Ġmo dific
Ġa do
Ġinform e
i os
Ġdo cum
in a
b an
en cias
ci embre
Ġsigui ente
A CION
Ġp u
Ġconsi der
ĠÂ «
ministr aciÃ³n
E C
ion al
Ġdi ciembre
Ġto dos
te g
Ġres pon
ur os
ĠS eg
Ã± a
Ġtam biÃ©n
Ġa de
it Ã©
ĠC ON
ĠA c
Ġp Ã¡
ĠA l
Ġsigui entes
ĠC a
p re
o bier
qui er
Ġ1 1
c al
Ġado p
Ġotr os
fer encia
in is
mi entos
ec ha
Ġespe cial
Ġapro b
ig n
Ġpro fes
g os
qu isi
Ġn Ãºm
v a
e br
Ġo c
ĠCon s
ver s
Â º
Ġ1 5
Ġg eneral
mi ti
Ġ1 2
e dad
Ġrec urs
Ġsi tu
ent aciÃ³n
ĠN o
pa ci
ĠpaÃŃs es
Ġ us
im en
T R
Ġm er
ra f
du ci
i en
Ġpr incip
Ġc re
f in
Ġe conÃ³m
Ã©g imen
Ġperson as
Ġcons titu
Ġcu enta
Ġd os
Ġ1 3
ĠCom itÃ©
im o
Ġreg ul
ĠE sp
r en
ĠU N
ex o
ru po
u al
da des
Ġin c
Ġs on
Ġcondi ciones
ĠS u
ĠI m
Ġ2 01
00 0
Ġej er
Ġ ra
Ġj ur
Ġpol ÃŃ
cl ar
cl us
Ġre laciÃ³n
Ġser Ã¡
iv el
Ġin de
Ġpro ce
Ġefec tos
Ġ1 4
1 9
Ġp l
as ta
ÃŃ dic
Ġapl ic
Ġpla zo
Ġde clar
ĠaÃ± o
Ġdeb e
Ġs es
Ġt Ã©cn
v is
ecre to
Ġg ar
Ġ3 0
Ġma ter
cul ar
Ġrespon sa
in aciÃ³n
Ġdur ante
Ġm ismo
T A
Ġad ministra
Ġf echa
t ario
Ġm es
Ġh uman
obier no
Ġim p
Ã± os
Ġ Ã³
Ġin dic
Ġempres a
Ġmedi ante
a bor
ĠaÃ± os
ĠM inis
am bi
Ġpodr Ã¡
ri tor
ĠD ecreto
Ġcon c
ec ho
Ġ2 0
ĠA u
ĠE S
Ġin ici
is tencia
Ġexp edi
ÃŃ fic
Ġp es
is ta
ta ciones
Ġla bor
Ġcons ul
Ġcon ten
tul o
t ante
a tiva
Ġd ÃŃa
ri v
i al
ĠDE L
1 0
I N
Ġrespec to
ĠpÃ¡ r
c ol
Ġsiste ma
Ġconform idad
Ġdisp osi
ven io
Ġotr as
Ġproduc tos
v e
c ar
ĠS E
ĠAd ministraciÃ³n
iden te
Ġmater ia
Ġse a
ĠâĢ ĵ
i j
t ecciÃ³n
Ġcontr ol
U L
Ġto do
c ter
v i
pues ta
arÃ¡ cter
Ġseg uridad
ĠC O
Ġt anto
Ġfun cion
Ġinter es
Ġ ,
Ġa y
tic o
ĠT ra
ĠO fici
Ġse Ã±
ĠnÃºm ero
Ġma teri
Ġg as
Ġdes de
ĠS ecre
Ġe uros
Ġc arÃ¡cter
Ġh or
Ġparti cip
ĠA n
ĠRe al
Ġn ivel
Ġt al
ĠIn ter
te gr
. .
f r
o per
l ar
Ġutil iz
Ġval or
cl am
ĠComun idad
Ġr Ã©gimen
z ar
u aciÃ³n
Ġin v
Ġor den
Ġh asta
ĠG obierno
Ġm Ã¡
Ġde stin
Ġdisp on
Ġl ug
ĠI N
tr os
ÃŃ an
r Ã¡
Ġma y
tam ente
Ġparti cular
Ġrec on
Ġproyec to
ĠD es
Ġnorm as
Ġda tos
ten ciÃ³n
in g
Ġex am
d an
ĠEs ta
Ġre clam
Ġpue de
2 01
ci l
] [
er os
is t
un ta
Ġc al
ĠO r
ĠR E
r im
er s
ĠC u
un di
ĠI I
e p
ĠpÃ¡r raf
Ġactiv idad
x to
cis iÃ³n
Ġde fin
Ġcon tin
Ġo fici
Ġa fec
Ġal gun
ĠP er
b e
Ġf uer
Ġ Ãº
Ġme j
Ġs an
Ġpu bl
Ġno v
Ġdisp uesto
Ġprocedi miento
Ġejer ci
g res
ĠÃ¡ mbi
Ġre ci
Ġ %
Ġcon f
Ġap o
Ġg ra
Ġ1 7
tor ia
Ġ1 6
tific aciÃ³n
Ġl i
Ġc er
Ġcual quier
Ġpres u
Ġb ase
ci os
Ġobje to
Ġman ten
Ġto tal
2 0
l ti
Ã¡ l
Ġ i
Ġin st
ul io
Ġc r
Ġan terior
ĠL OS
Ġs ido
an a
ĠT ri
U R
iem bre
Ġseg Ãºn
v il
Ġa m
Ġ1 8
ĠÃ³ rgan
Ġjur ÃŃdic
Ġnov iembre
Ġdisposi ciones
Ġan exo
Ġlug ar
Ġj ulio
b ar
ĠUn iÃ³n
Ġservici o
ĠE x
ĠEurope a
Ġcom er
Ġp as
it ar
Ġ qu
b o
Ġca p
ific aciÃ³n
t ada
t aria
D O
Ġmay or
Ġinterna cional
tor es
ĠTri b
g en
Ġleg is
Ġes tu
Ġc el
t an
re g
Ġorgan iz
Ġdic ho
Ġj u
Ġs ector
Ã± o
un do
Ġca us
Ġref ier
Ġg estiÃ³n
ĠQ UE
Ġpro tecciÃ³n
Ġapl ica
om ento
us tr
Ġ Ã
ĠS er
Ġter ritor
Ġcorrespondi ente
Ġc os
Ãºbl ica
tr ibu
u da
---------------- ----------------
Ġha y
i as
tic os
U N
tr im
Ġto das
st an
or te
âĢ Ŀ
Ġex pres
ĠSeg uridad
1 2
Ġti po
Ġest Ã¡
ĠCon venio
ene fici
pl o
a z
Ġj un
ter io
Ġ igu
Ġem ple
j a
Ġsitu aciÃ³n
de ra
p ro
ĠL AS
Ġcons ecu
ĠpÃ¡rraf o
Ġin tegr
al iz
Ġy a
e ti
Ġre quisi
Ġrepres ent
Ġd ÃŃas
Ġprogram a
Ġdeber Ã¡
Ġev al
ĠN a
Ġan te
ĠÃº lti
Ġpro pi
ec uciÃ³n
Ġ2 5
Ã¡ c
b ro
ion ales
Ġestableci do
den cia
ba jo
ĠâĢ ľ
Ġes pec
ĠR es
ĠIm puesto
Ġrecurs os
paci dad
esti g
i e
ĠseÃ± al
Ġin f
Ġform ul
t re
Ġ z
Ġtrabaj adores
trim on
Ġtran sp
Ġj us
Ġha b
Ġti em
ĠÃ¡mbi to
ent ro
s erv
un tos
__ __
ĠmÃ¡ x
Ġpro p
Ġ2 2
Ġcomp ro
v isiÃ³n
Ġpro mo
m is
Ġjun io
Ġti ene
Ġp ues
tur al
Ġci r
c h
pues tos
pa Ã±
EN TE
Ġ K
Ġp os
y e
Ġe qui
duc ciÃ³n
Ġ ur
Ġper ju
pl em
Ġg ener
Ġco oper
p ti
ent al
Ġso ci
ri l
Ġent r
c ado
Ġm il
Ġten dr
Ġ ri
Ġmedi o
ĠPres idente
Ġpodr Ã¡n
t Ã³n
Ġmis ma
Ġmu jer
i to
Ġ3 1
Ġn om
Ġcel ebr
tÃŃcul os
Ġmen os
ig ur
Ġdi stin
Ġv i
Ġc entr
Ġ2 6
Ġn eg
Ġf al
ĠS o
Ġve z
. -
Ġtiem po
R E
n os
ent as
ici o
Ġha ya
Ġv ol
an tÃŃ
iv ers
bl em
ol og
Ġestablec e
Ġrefier e
ĠâĢ Ķ
Ġde ci
que l
Ġbien es
ĠS i
Ġejerci cio
Ġo tra
Ġna cional
âĢ ĥ
Ġoper aciones
Ġen ero
Ġespec ÃŃfic
Ġm Ã©
t adas
Ġhor as
e a
er g
1 1
Ġti tul
z as
Ġun o
Ġade cu
Ġus o
3 0
Ġpro ceso
Ġb enefici
Ġdic ha
Ġdisp osiciÃ³n
Ġmar zo
Ġes ti
Ġes tos
Ġ2 4
Ġt Ã©r
Ġgar anti
Ġestu di
Ġtra ta
Ġent idades
le v
Ġses iones
Ġre un
Ġo tro
Ġv er
m ar
Ġinst al
Ġexpedi ente
Ġin di
Ġs ent
Ġl ey
ci miento
tÃ³n om
Ġpr Ã¡c
Ġf ij
Ġcumpl imiento
M P
Ġpro puesta
Ġpar tes
il i
p ciÃ³n
Ġcas os
Ã³ g
Ġmen cion
AR A
Ġso cial
i ble
ec hos
Ġent idad
Ġar tÃŃculos
Ġ2 1
Ġseg u
Ġ/ /
ĠPar a
d am
Ġcompe t
Ġa di
un al
Ġhuman os
ĠD er
Ġel em
Ġde sp
Ġsuper ior
is mos
ÃŃ cul
Ġex ig
Ġden tro
Ġm ÃŃn
Ġdeb en
Ġparti r
por t
Ġrequisi tos
Ġsi em
Ġprogram as
h as
d ustr
ĠD is
Ġsu je
Ġha cer
Ġmej or
Ġa quel
Ġc anti
Ġ2 9
Ġ19 8
Ġreg is
Ġb as
ĠtÃ©r min
Ġinv estig
cri to
ĠRe p
Ġan tes
Ġsiem pre
am ble
Ġ Ã©s
Ġigu al
D I
ar on
Ġfun ciones
it aciÃ³n
T ER
Ġprofes ional
ĠDirec tiva
Ġob ten
in o
par tam
ti r
Ġc ri
ĠpÃºbl ico
i endo
Ġl im
Ġtr as
Ġtr es
Ġin m
Ġh echo
Ġc ambi
Ġes e
Ġra z
ĠEsp a
amble a
Ġimpor te
Ġab ril
en o
Ġej ecuciÃ³n
Ġdi fer
Ġs a
ti s
Ġor ig
tu bre
Ġas istencia
Ġri es
Ġel abor
Ġ2 8
Ġempres as
O L
Ġresponsa bilidad
Ġm omento
Ġo f
Ġoc tubre
Ġde mÃ¡s
om en
Ġd on
mi te
ib uciÃ³n
ĠMinis terio
Ġv ir
Ġel lo
Ġrela cion
Ġob st
ĠRep Ãºblica
Ġ2 3
ent ales
Ġ tÃŃ
Ġmes es
Ġp unto
Ġgas tos
Ġapo yo
Ġefec tu
ĠIn s
5 0
ĠCa tal
ĠG rupo
Ġcon te
ĠAs amblea
Ġ2 7
ib er
gu a
Ġob serv
Ġ Ãºn
ĠDirec ciÃ³n
ĠOr den
Ġins titu
Ã© di
ĠS al
Ġvig or
ĠS U
Ġnue v
Ã³ lo
teri ores
duc aciÃ³n
Ġv iv
Ġpue den
ÃŃ tulo
ĠD O
Ġa mpl
R A
Ġ *
Ġse an
ĠSecre tario
cep to
ĠSer vici
br as
teg or
em os
Ġma yo
Ġform aciÃ³n
Ġpro por
Ġex tra
Ġc l
ĠAc uerdo
Ã³ di
e t
ĠP lan
Ġfin al
Ġautor iz
TO S
Ġcon j
Ġf igur
ĠSo cial
Ġconsecu encia
p en
Ġcu estiÃ³n
Ġp on
Ġsolici tud
ra c
Ġte xto
Ġperson a
t antes
den tes
Ġper o
ĠTrib unal
ĠO rgan
t ad
Ġmiem bro
Ġf ue
en a
ÃŃs ticas
Ġs im
Ġcorrespondi entes
ĠM edi
sp ec
Ġl es
Ġser Ã¡n
or por
ord in
Ġa g
Ġneces ario
dos e
Ġmar co
Ġespe ci
z os
Ġdeber Ã¡n
m n
Ġcooper aciÃ³n
Ġrecon oci
ĠV al
it al
ue l
Ġcontr ibu
Ġg rupo
ac ter
o c
Ġins tr
Ġexam in
I I
en en
teri os
E X
Ġre fer
ĠInter na
Ġproduc ciÃ³n
Ġpa trimon
Ġar reg
Ġcu esti
ĠOfici al
Ġvir tud
v es
I A
Ġac ceso
Ġo p
stan cias
Ġpr ue
Ã ĵ
M EN
Ġprevis to
Ġf ir
ĠC E
Ġfun ciÃ³n
ens a
Ġp rec
h e
im a
ĠP a
cu p
ĠH a
M A
u ales
Ġfa cil
Ġf on
ce l
Ġprim era
ir Ã¡
Ġel ec
ĠPR O
Ġtrabaj ador
Ġpre par
19 8
b as
Ġmedi os
tur as
r ig
Ġinde mn
Ġg r
an za
I O
Ġposi ble
ĠC o
ĠAd ministra
tam en
Ġur ban
Ġem bar
Ġcon ta
ĠP OR
4 0
Ġa um
e d
truc ciÃ³n
Ġfun dam
Ġh u
pti embre
Ġal can
1 3
tor io
Ġres ol
ent ar
Ġprocedi mientos
Ġ Ã©
er r
Ġparticip aciÃ³n
Ġest Ã¡n
Ġarreg lo
h ÃŃcul
duci r
UL O
Ġl lev
Ġorganiz aciones
Ġg u
Ġes tas
Ġten er
Ġse ptiembre
Ġestablec er
Ġlegis laciÃ³n
Ġf or
Ġb u
Ġte m
ti cia
Ġman era
Ġs om
Ġa gr
Ġfa v
Ġna cionales
Ġfuncion amiento
Ġprim er
Ġobst ante
Ã³ l
Ġac re
Ġl ÃŃ
Ġeval uaciÃ³n
Ã³di go
partam ento
un ici
Ġf u
tr as
ĠO R
tar ÃŃa
Ġmer cado
Ġre ferencia
Ġb Ã¡s
Ġap or
ec e
Ġc ul
tr ic
Ġdefin i
Ġca pacidad
Ġf r
ĠS in
L A
Ġc alidad
Ġinterna cionales
Ġto da
Ġa mbi
Ġca tegor
Ġ iden
Â ª
Ġinstr um
Ġs Ã³lo
ad r
Ġcom ple
Ġconform e
ĠM ar
CE E
Ġcon oci
un da
Ġcar acter
c un
Ġelem entos
Ġobje tivos
Ġde riv
man ente
" .
Ġcon ven
Ġna tural
Ġcomun ic
Ġan ti
Ġp riv
tr ibuciÃ³n
antÃŃ a
t on
Ġin gres
Ġex per
ĠS an
Ġhay an
Ġsoci edad
Ġt ar
Ġconsi dera
S I
ĠpolÃŃ tica
ec n
Ġdeclar aciÃ³n
it aria
Ġcir cun
Ġvi ol
Ġve hÃŃcul
is is
Ġsal ud
Ġ k
Ġdic tamen
c en
Ġni Ã±os
f i
Ġdel eg
Ġcr Ã©di
Ġf am
Ġefec to
1 5
Ġconc re
am i
a g
Ġ1 00
Ġsus titu
Ãĵ N
ebr ero
por te
ur r
Ġm i
Ġcom plem
Ġc las
cri pciÃ³n
ĠE m
Ġperju icio
ĠPR ES
a tivas
Ġmedi da
1 4
Ġpro blem
e za
bi r
Ġf ebrero
Ġ X
Ġdocum ento
tiv amente
ten cias
ĠCon venciÃ³n
ĠpÃºbl ica
ĠÃ ģ
ID AD
in as
Ġcuesti ones
8 0
Ġ200 4
Ġci vil
Ġnorm ativa
p osiciÃ³n
Ġ200 5
Ġay uda
ĠAu tÃ³nom
ar a
ĠT o
g as
ĠT er
port un
am os
ĠCu ando
it ario
im ismo
Ġautor idades
Ġterritor io
ti on
Ġha ber
ĠEsp e
ĠÃ³rgan os
Ġmujer es
Ġg ran
ĠmÃ¡x imo
Ġhab ÃŃa
c ales
ĠE X
Ġtransp orte
Ġes a
ĠR ec
ĠA L
om ÃŃa
Ġcu anto
e dades
2 5
Ġin vers
ĠC A
Ġcompe tencia
Ġrecurs o
Ġv o
der Ã¡
ĠtÃŃ tulo
ĠPar lamento
ĠIn form
e o
Ġre l
Ġorgan izaciÃ³n
Ġo portun
Ġn ues
ĠInterna cional
u Ã±a
Ġ200 6
Ġac uer
Ġc an
M O
iv o
Ġe fic
B L
Ġc urs
en es
Ġin dustr
Ġdes em
ĠNa cional
g ado
Ġp uesto
e tas
Ġaplica ble
Ġc am
6 0
Ġinvestig aciÃ³n
Ġdis c
Ġpue dan
di a
Ġestableci dos
ador a
Ġt ales
ĠSu b
l es
Ġ200 0
Ġinc orpor
Ġde cisiÃ³n
ĠA C
Ġ200 2
Ġes truc
ĠF in
Ġes tar
Ġd om
tur ales
Ġti enen
Ġ tu
Ġf ac
ien da
Ġv in
undi al
Ġf is
Ġ qui
Ġcontra to
Ġseg undo
Ġreal izaciÃ³n
Ġacre di
Ġa tenciÃ³n
Ġautor izaciÃ³n
Ġrec omen
ĠCatal uÃ±a
Ġcri terios
Ġnue vo
Ġoblig aciones
se Ã±
den te
Ġs ig
Ġes crito
Ġm ec
Ġresul tados
e z
Ġm on
u das
Ġsiste mas
v Ã©s
tific ado
ĠP ol
Ġca bo
Ġentr ada
Ġtra vÃ©s
Ġcomp r
l u
Ġin clus
Ġej em
Â °
Ġmodific aciÃ³n
ĠtÃ©rmin os
d ar
Ġe qu
unici p
Ã³ s
2 2
Ġgener ales
Ġ200 3
Ġman i
Ġreclam aciÃ³n
ĠDe partamento
ĠC U
Ġpa go
ĠM a
Ġ5 0
I R
ĠPar te
Ġmu y
Ġin fer
f a
ĠEurope o
ĠC ar
qu es
Ġ200 1
ĠeconÃ³m ica
Ġconten ido
Ã¡ fic
Ġci n
to col
ĠP Ãºbl
g Ã¡n
ĠA y
Ġmanten imiento
Ġdocum entos
ĠC h
Ġconsul ta
Ġcon ces
Ġinform es
Ġdi vers
l ic
Ġrealiz ar
ĠC ol
ĠPro gram
1 6
Ġlabor al
p endi
T AR
Ã į
I CI
ĠPar tes
ol Ã³g
i ales
Ġpue da
i de
c om
Ġpre cis
Ġex plo
Ġter cer
or n
u Ã©s
Ġes tado
ru pos
Ġinstal aciones
ĠEspa Ã±a
TI V
Ġpresu pues
Ġgaranti zar
a tivo
ĠQ ue
er as
Ġdon de
f e
TI C
fici ente
Ġproyec tos
Ġprofes ionales
qui era
i ta
Ġpres taciÃ³n
Ġneces idades
Ġcom Ãºn
Ġcu ya
al a
Ġdi rig
as a
Ġcol abor
Ġl iber
pues tas
Ġneces idad
T ES
Ã³ r
Ġper tin
ĠS oci
ĠP ARA
e as
v id
T U
Ġcomun icaciÃ³n
m isiÃ³n
Ġda Ã±os
Ġcentr os
Ġreg lam
u dad
Ġadi cional
di cial
Ġrec og
Ġ9 0
Ġes tra
Ġproduc to
Ġutil izaciÃ³n
7 0
Ġembar go
olog ÃŃa
. ,
ĠD el
i der
ens iÃ³n
R ES
an o
ĠÃ³rgan o
ĠA de
Ġcar go
Ġcompet ente
Ġpa z
eg ur
Ġen cu
ĠPer son
an os
s o
Ġsent ido
ÃŃ m
tu al
Ġau to
Ġpubl icaciÃ³n
Ġtendr Ã¡
Ġres pe
) ;
ĠP o
ic amente
Ġaprob ado
v an
id aciÃ³n
Ġcanti dad
Ġcons um
iden cia
ĠB ar
Ġnom bre
Ġelec tr
Ġtr ibu
Ġmo do
ĠM o
Ġrela tivas
Ġas ign
AL ES
is tas
R I
ĠP re
Ġinter Ã©s
ĠTra bajo
miti r
da c
Ġh om
ĠT EX
ĠDer echos
Ġim pl
tr an
Ġal im
Ġ â
iz ar
i tos
Ġm in
ĠEspe cial
on as
1 8
Ġpo bl
es iÃ³n
t Ã³
ĠUn ivers
ul ar
ul a
Ġcol ec
Ġconte mpl
Ġp e
ĠTEX TO
Ġha ce
Ġs os
qu er
v in
tar se
Ġex cep
t arÃ¡
Ġorgan ismos
ic e
ĠpolÃŃ ticas
Ġha bi
ĠpÃºbl icas
Ġses iÃ³n
Ġ200 7
Ġcontin u
Ġ ba
Ġtr am
Ġm uc
Ġg rupos
Ġres erv
Ġc entro
ĠEs te
ĠT Ã©cn
Ġf ÃŃs
ĠÃºlti mo
Ġt ecn
1 7
Ġprec ep
ĠEsta tu
2 3
Ġex clus
Ġsin o
Ġcomer cial
2 4
Ġemple o
Ġ200 8
i di
ord inaciÃ³n
arrol lo
ĠA R
v al
Ġimpor tante
adr id
ber n
l eg
Ġmer can
Ġde ba
ĠmÃŃn imo
Ġes f
Ġdesp uÃ©s
ĠIns titu
Ġimpor t
Ġnue va
Ġcompe tencias
Ġ ta
Ġv ac
Ġper ci
Ġade mÃ¡s
Ġrela tiva
Ġas egur
c os
re m
ĠA N
Ġinfer ior
Ġpro ces
Ġvin cul
ĠS r
Ġpresent aciÃ³n
Ġej ecu
ĠE conÃ³m
ĠAde mÃ¡s
ten s
Ã¡ m
Ġaprob aciÃ³n
Ġcambi o
Ġre dac
Ġl uc
Ġfuer a
Ġfa br
ĠJ us
Ġau di
Ġpro vis
Ġ Z
Ġtitul ar
Ġjus tific
u ciones
oci aciÃ³n
Ġpropor cion
ĠM adrid
Ġpl ante
ĠT am
Ġle tra
ĠCons titu
Ġac ep
pon er
Ġactu aciones
es or
A C
Ġpubl ic
Ġcor rec
ĠDes arrollo
Ġlo cal
Ġcircun stancias
ĠJ unta
Ġval ores
mis o
Ġex ist
Ġproce de
on o
edi a
Ġsa tis
Ġfinanci aciÃ³n
di da
Ã¡l isis
S E
Ġconf lic
g ar
it arios
ven ciones
t s
Ġan im
Ã¡n dose
Ġmis mos
ĠEm pres
Ġmateri ales
Ġcon vo
Ġmec an
st ancia
ĠjurÃŃdic o
ĠpÃºbl icos
Ġan teriores
Ġci er
Ġfav or
Ġexam en
ĠCons ider
Ġfal ta
200 3
Ġz ona
ĠC or
Ġen erg
Ġdes ign
Ġp en
Ġseg unda
Ġe ducaciÃ³n
Ġcaracter ÃŃsticas
P E
ĠC Ã³digo
Ġci udad
pe l
g encia
ig r
Ġv enta
ĠOfici na
ĠDe cisiÃ³n
r ue
Ġrela tivo
Ġdeci r
ĠO b
ĠProgram a
Ġse l
t ando
Ġesf uer
ĠtÃ©cn icas
ĠtÃ©cn ica
c to
Ġcu yo
Ġprevis tos
Ġcom par
da p
Ġsu puesto
Ġpresu puesto
ti z
p u
Ġneces arias
Ã© l
Ġent en
Ġdifer entes
Ġlo gr
AD OS
Ġobje tivo
Ġen car
j os
Ġel los
Ġre quer
Ġpues tos
ĠCon ferencia
Ġinstitu ciones
Ġvol un
ĠII I
un que
Ġejem plo
Ġnorm a
Ġindemn izaciÃ³n
Ġdocum entaciÃ³n
Ġestableci miento
Ġj orn
Ġespeci fic
Ġ4 0
Ġac ciÃ³n
ĠOrgan izaciÃ³n
Ġacuer dos
Ġtrans i
iz a
ĠTra tado
Ġan ual
Ġextra ordin
Ġcu o
y en
Ġa f
d in
iv os
Ġa spec
Ġz onas
9 0
i Ã³
te l
ri r
Ġse x
Ġrepresent antes
ĠC an
Ġten gan
ter a
Ġcaus a
D A
Ġprevis tas
Ġes os
ĠF on
Ġtem por
Ġries go
tiv idad
e b
ur a
Ġc lar
e ci
Ġdic hos
ĠJus ticia
a tro
ĠH uman
Ġp ri
en da
ec er
us iÃ³n
Ġex is
Ġ ro
tocol o
Ġac ciones
gos to
ĠConsider ando
Ġab s
f ac
pen dencia
Ġindi vid
Ġ W
l ones
Ġfon dos
Ġar mas
Ġcumpl ir
ĠC entro
7 5
paÃ± ol
Ġcondi ciÃ³n
Ġcre aciÃ³n
Ġso ciales
I L
Ġ bajo
Ã³l ares
ĠJ e
2 6
ĠJ u
is to
er an
Ġpre venciÃ³n
iv a
Ġes paÃ±ol
Ġ199 9
ĠmÃ© to
Ġconces iÃ³n
Ġa h
Ġcon duc
Ġprincip io
Ġconj unto
Ġrepres entaciÃ³n
Ġtrata miento
Ġprincip ios
Ġcu ales
Ġaplic ar
Ġpu di
____ ____
ĠG u
t ales
i ente
Ġampl i
Ġcategor ÃŃa
ari al
Ġin tro
Ã ¼
b res
Ġs ec
ol e
Ġo tor
b al
Ġpes etas
Ġd ar
Ġde cis
Ġa dap
Ġar m
Ġa gosto
er on
Ġadministra tiva
Ġoblig a
Ġpro duci
Ġinclu idos
Ġac er
Ġm unicip
ĠI s
iv al
n as
ĠServici o
ing Ãºn
Ġcon cepto
orm ente
Ġe urope
Ġac tos
Ġreun iÃ³n
Ġd Ã³lares
EN ER
Ġo bras
3 3
Ġadop tar
CI A
Ġnatural eza
ul tura
teri ormente
Ġinc rem
ĠN O
Ġmateri al
Ġvig ente
Ġre visiÃ³n
Ġautor idad
Ġneces arios
Ã¡ lo
i bles
Ġr endi
ĠTam biÃ©n
ĠSecre tarÃŃa
Ġsi endo
Ġorig in
Â» .
Ġdesem pe
ĠprÃ¡c tica
tu des
Ġreci b
Ġsom eti
Ġadministra tivo
Ġdes pl
Ġre ducciÃ³n
Ġequi pos
Ġespecial mente
Ġactu al
Ġdi f
Ġlo cales
Ġen fer
Ġoblig aciÃ³n
un ci
Ġqu in
Ġdirec ciÃ³n
j as
2 8
Ġv en
ĠeconÃ³m ico
Ġregis tro
Ġactu aciÃ³n
ta des
Ġconsider aciÃ³n
Ġ 00
Ġestudi os
4 8
Ġdic has
2 9
Ġcomun idad
Ġque d
Ġestableci das
ĠDirec tor
Ġgr ado
o cia
Ġl ÃŃn
Ġad quisi
Ġp el
Ġinm edia
ĠReg is
Ġm ul
Ġn ingÃºn
Ġmateri as
Ġorig en
Ġelectr Ã³n
Ġay udas
Ġtendr Ã¡n
Ġv ida
Ġdetermin ar
ue lo
Ġjorn ada
ec h
AD A
Ġprev ia
r as
gÃ¡n ica
re a
Ġimport ancia
es truc
T ULO
Ġsal vo
r or
pon e
Ġli bre
Ġex pl
Ġa tribu
Ġalgun a
Ġhu bi
Ġpromo ciÃ³n
Ġcons erv
Ġpre cio
D E
cul o
ĠL o
T EN
Ġmil lones
Ġper mi
Ġo cup
Ġoper aciÃ³n
uc le
Ġexplo taciÃ³n
Ġespe ciales
Ġes c
in gun
ĠM iem
ami entos
es e
Ġde se
ĠP rim
dic a
Ġten iendo
Ġor i
Ġl leg
CI ÃĵN
ÃŃs tica
ĠPÃºbl icas
Ġla r
h i
Ġex ce
Ġa gua
Ġ --------------------------------
Ġdo c
Ġdisc rim
Ġes as
is iones
ad i
Ġmis mas
200 6
Ġingres os
Ġpobl aciÃ³n
Ġ era
i lo
Ġdirec tamente
Ġinstrum entos
Ġe miti
Ġpre cios
Ġen seÃ±
Ġl ic
Ġal eg
Ġt ur
ir se
ĠA P
ĠJ ur
7 8
Ġten ga
ĠAdministra ciones
Ġnuev as
Ġsu sp
Ġries gos
M B
Ġco ordinaciÃ³n
Ġcin co
T ADO
Ġpo der
5 5
ĠDis posiciÃ³n
Ġex por
ĠAy unta
Ġ )
Ġpar cial
h er
con omÃŃa
ĠAutÃ³nom a
Ġsos ten
ACION ES
Ġprop ia
da ciones
Ġper io
Ġfa cul
Ġmo de
ĠM an
N AL
e der
ici os
ĠAs imismo
Ġa ju
) :
Ġresul ta
Ġcontra tos
Ġun ivers
Ġaquel los
z ca
ĠG ENER
Ġa ten
Ġa qu
Ġcap ital
ĠOR IGI
cel ona
ĠE uro
200 5
Ġposi bilidad
" ,
Ġleg al
Ã© ase
ĠRes oluciÃ³n
Ġpri or
Ġsub s
Ġpresent ar
ĠD IS
Ġreglam ent
200 2
Ġresol ver
Ġac ci
Ġinteres es
Ġ| -
Ġequ ival
Ġt he
Ġpertin entes
Ġoc as
Ġ il
os o
4 6
Ġproblem as
Ġresul tado
ĠM on
Ġde c
ĠEstatu to
E l
Ġ6 0
bil idades
tÃŃ n
Ġter ror
Ġno ta
Ġter ren
bern am
ĠORIGI NAL
dr Ã¡
ĠE j
Ġan Ã¡lisis
ĠBar celona
Ġac ord
Ġdis tribuciÃ³n
Ġcurs o
Ġinteres ado
Ġto m
Ġter c
i encia
Ġfis cal
ER A
ari amente
ĠServici os
Ġm ues
ĠV I
Ġli qu
t arios
2 1
Ġesti m
Ġ w
MI N
Ġnuev os
Ġad ministraciÃ³n
4 3
ĠComun idades
Ġex tran
Ġprue ba
ĠI V
Ġfigur a
Ġcon ce
ĠF orm
un d
ĠPro tocolo
Ġcompet entes
Ġest Ã©
ic en
Ġfuncion arios
Ġplan es
Ġden om
ĠSe Ã±
id amente
I F
ador as
Ġcomp ren
Ġv ÃŃa
Ġcomplem ent
Ġapar tados
Ġju dicial
Ġs ign
ĠD ec
IC A
P A
Ġre tribu
200 1
Ġcap ÃŃtulo
Ġdur aciÃ³n
Ġ200 9
m Ã¡
Ġe t
c am
Ġpatrimon ial
Ġcu atro
ĠHuman os
Ġv ista
Ġ ÃŃn
gu as
ĠT ran
um en
Ġp untos
Ġdecis iones
Ġesfuer zos
Ġaspec tos
fr ica
Ġde tal
gr Ã¡fic
form a
an zas
Ġdistin tos
ĠEn ti
Ġn ingun
R O
ĠInstitu to
U C
ĠS iste
4 5
7 9
Ġest arÃ¡
Ġpro du
ĠDer echo
6 3
j es
ĠAyunta miento
ir Ã¡n
Ġsolici tudes
7 3
l ado
Ġelabor aciÃ³n
Ġman da
Ġtrabaj os
Ġdispon e
e v
ĠSu per
l i
Ġcontin uaciÃ³n
U ES
Ġn ucle
Ġmejor ar
Ġjur is
a cia
Ġenfer me
Ġcanti dades
t Ãº
199 2
ocia ciones
L a
Ġprue bas
Ġviv ienda
ul aciÃ³n
Ġha br
ci n
200 4
ili ar
Ġalgun os
Ġestra teg
Ã©c tr
Ġpro teg
Ġre par
Ġigual dad
u ta
Ġde f
Ġsu puestos
ĠH A
ĠcrÃ©di to
i bilidad
ĠVal or
Ġinde pendi
Ġencu ent
d al
ĠAn exo
Ġp eti
Â» ,
Ġcomer cio
Ġal ter
Ġcompr endi
l er
ĠRegis tro
id u
ĠEmpres a
Ġcom b
qu en
it arias
Ġpromo ver
Ġcomp ens
ĠUn a
c as
ĠprÃ¡c ticas
undi do
Ġpres taciones
Ġsu ficiente
ĠD ic
Ġraz Ã³n
IS TR
ĠÃ©s te
a ba
Ġal um
I EN
ĠFon do
ĠT R
Ġte ma
ĠjurÃŃdic a
5 8
Ġci tado
ĠCom o
Ġel im
Ġen sa
7 6
b os
ER O
Ġpor que
ul o
Ġac om
Ġv ia
200 0
Ġ3 8
Ġab on
ĠF a
Ġsuper fici
CION ES
Ġinf rac
ĠA m
Ġque da
ĠRE G
1 00
Ġparti ci
200 7
z ado
Ġn e
ĠJur ÃŃdic
C O
Ġap rue
Ġper manente
Ġneces aria
Ġin cum
j ero
Ġeval u
Ġadop ciÃ³n
mi tes
Ġofici al
Ġconsul tante
Ġdes esti
ĠCon tra
Ġes per
Ġse is
Ġac og
Ġcu ar
Ġfr ente
Ġ199 8
Ġreclam ante
Ġaplica bles
Ġfir m
Ġprop io
Ġca paci
Ġsub venciones
Ġinter pre
bl o
Ġ3 9
ĠIm porte
Ġinclus o
a tivos
Ġf i
Ġpre o
Ġcolabor aciÃ³n
ad amente
Ġar t
Ġcom pon
Ġfinanci eros
Ġpro gres
ĠCA P
ĠS O
Ġest Ã©n
Ġorden aciÃ³n
Ġfacil itar
mis os
ĠvehÃŃcul o
ĠvehÃŃcul os
Ġfam il
Ġre d
ir m
Ã ĳ
Ġcon clus
Ġinclu idas
Ġl ista
Ġdis f
ĠB an
Ġv a
Ġp Ã©r
ĠQ u
199 9
Ġadquisi ciÃ³n
Ġas oci
Ġequi po
t ec
qu ir
N U
ti da
Ġobten er
Ġs ÃŃ
Ġop in
Ġsig ue
ĠGENER AL
ĠD o
Ġconstitu ye
ĠM E
Ġestablec en
ĠA D
ti ene
ĠE UR
Ġh o
Ġrecomen daciones
Ġal ma
Ġs ecciÃ³n
Ġinvers iÃ³n
Ġgra ves
ĠUn idos
Ġrepresent ante
c enta
Ġre vis
ole tÃŃn
Ġg Ã©n
Ġes pa
ĠPer manente
ĠE ducaciÃ³n
ĠConstitu ciÃ³n
eg u
c ambi
Ġrel aciones
Ġconoci miento
Ã³ x
Ġtra te
p as
ca pacidad
00 00
I E
Ġmercan c
Ġa unque
ĠV isto
ĠEuro pa
Ġfin es
Ġproces os
Ġcu antÃŃa
Ġse par
Ġv ÃŃ
Ġ3 3
Ġprincip ales
4 9
Ġregul aciÃ³n
Ġreconoci miento
ĠPres u
b ol
ĠCO M
ÃŃ col
sp ecciÃ³n
Ġti pos
ĠTer ritor
i entes
Ġviol encia
Ãį TULO
Ġsign ific
Ġ3 5
ad ro
Ġe duc
Ġ err
Ġcon cedi
ĠpÃ¡ g
0 5
Ġor din
Ġdeber ÃŃa
Ġprincip al
Ġes en
ĠM A
Ġde man
Ġdisf ru
Ġcual quiera
Ġah ora
ĠCO MP
Ġb an
Ġ :
Ġcons trucciÃ³n
ĠM undial
ĠÃ©s ta
ente mente
Ġambi ente
Ġconvo ca
Ġregis tr
c ados
us o
Ġa j
Ġfin alidad
Ġe dad
Ġpa pel
.. .
ĠP AR
Ġcon st
ĠtÃ©cn ico
ĠS ecciÃ³n
c ha
ĠP ER
Ġtram itaciÃ³n
Ġno tific
7 7
ĠUN A
Ġsegu imiento
Ġpro puestas
Ġresponsa ble
Ġlar go
iz ado
p ia
Ġcons ol
la ter
im os
Ġau ton
y an
ĠM IN
Ġcu entas
ici dad
Ġpropi os
Ġim pon
Ġsim il
Ġcer tificado
ad ido
Ġningun a
Ġsu p
Ġcon clu
ĠAs untos
Ġprevis ta
Ġmanten er
Ġad u
ĠâĢ ¢
en ci
I V
Ġrelacion adas
ĠPro cedi
i ores
Ġestruc tura
Ġdeci di
ĠC as
dific aciÃ³n
6 8
Ġenerg ÃŃa
Ã± as
Ġdetermin aciÃ³n
Ġanim ales
OR M
Ġdetermin ados
ĠDec lar
Ġlegis la
ĠcrÃ©di tos
Ġus u
Ġvig il
ra g
t ece
in e
Ġcon venio
Ġdesarrol l
ĠC iv
Ġdiscrim inaciÃ³n
Ġfinanci era
ĠCa p
f o
ĠOr gÃ¡nica
bl a
ĠL e
Ġsatis fac
Ġreg iÃ³n
Ġaju st
z can
Ġper man
D IGITO
Ġtercer os
ar ÃŃa
Ġprev io
Ġrela tivos
ic ÃŃa
Ġinter cambi
Ġdec re
ĠCiv il
fer encias
Ġdi ce
ĠA gencia
EN TO
ĠS EC
pa ti
ĠL O
ĠR Ã©gimen
C A
3 5
e ter
Ġrepres enta
ĠP r
Ġ201 0
U S
ti do
ens iones
ĠC entr
Ġ ir
Ġinter venciÃ³n
Ġimp osi
E n
Ġmayor ÃŃa
4 4
Ġad quir
y os
blem ente
Ġreg ionales
Ġcelebr ada
Ġex istencia
Ġ199 7
I Z
ĠES TA
2 7
Ĥ ¬
ÃŃ ti
Ġpe que
Ġm undo
Ġdeleg aciÃ³n
Ġpos terior
c ti
Ġrelacion ados
bil itaciÃ³n
Ġpl en
ID A
ĠPol ÃŃ
Ġr ad
ĠJe fe
Ġde por
dic o
Ġprovis ional
Ġpresent ado
Ãº s
ĠMinis tro
6 5
ĠlÃŃ mite
Ġpor centa
ĠTrib u
Ġv is
ic ar
antÃŃ as
Ġen v
Ġe di
Ġun idades
Ġsoci edades
Ġliber tad
ĠeconÃ³m icas
bi a
ĠN orm
aliz ar
Ġresol uciones
ĠPR E
st as
ĠMedi o
on g
ci do
Ġrealiz adas
ĠS ER
Ġre miti
Ġpropi edad
yec to
L O
Ġh echos
ĠR ES
ĠeconÃ³m icos
ic ultura
Ġnivel es
Ġv arios
ĠV II
Ġaum ento
Ġ-------------------------------- --------------------------------
v ier
Ġno tificaciÃ³n
n e
Ġprev Ã©
Ġna turales
ĠÃºlti ma
Ġcontra taciÃ³n
bernam entales
Ġtempor al
Ġtrans form
ĠtÃ©rmin o
Ġin ci
Ġun idad
t arias
Q U
ĠMiem bros
Ġreun iones
Ġincum pl
Ġg lo
Ġpreo cup
Ġrec u
tor ias
Ã³ d
Ġse man
Ġsitu aciones
Ġ +
Ġref undido
Ġd ado
Ġluc ha
a p
ĠCON S
Ġes fer
ĠPerson al
Ġh i
Ġel las
Ġmodific aciones
ĠD ur
âĢ ĵ
Ġob ra
Ġsol o
cep ciÃ³n
an ia
Ġev itar
Ġm undial
ĠB a
Ã¡ r
ĠvÃŃ cti
Ġdes cri
Ġex clu
i te
Ġel Ã©ctr
Ġmanda to
L E
Ġper iÃ³
Ġan tece
Ġau tÃ³nom
Ġpresupues taria
Ġpodr ÃŃa
a tos
ĠP l
Ġmul ti
Ġciudad anos
Ġgar antÃŃa
Ġdespl az
Ġ is
T AS
Ġtrans misiÃ³n
9 3
o cer
ba j
ent ÃŃfic
Ġci tada
Ġâ Ĥ¬
ĠCom er
Ġform as
Ġres puesta
Ġex en
ĠC R
Ġexist entes
Ġv ari
til la
Ġafec tados
Ġn os
Ġper ten
ĠlÃŃn ea
Ġdirec ta
ĠU E
TER I
tar Ã¡n
ra estruc
Ġter min
ili ares
ĠDE S
Ġins truc
ĠF is
Ġcons igui
TO R
Ġcorrespon de
ĠmÃ¡x ima
ĠÃºn ico
Ġmen or
t h
Ġ. ..
6 6
MEN TO
Ġlim it
i ados
Ġan d
Ġref le
Ġdistin tas
Ġtr Ã¡
Ġmercanc ÃŃas
Ġest ad
Ã¡lo go
Ġde p
ĠÃģ frica
Ġsu ces
til es
Ġaplic arÃ¡
jer os
ĠCons ul
ĠF un
Ġet c
ĠA Ã±
er ÃŃa
ĠSal ud
ist Ã¡n
Ġ199 6
ĠF or
Ġvalor aciÃ³n
ĠDeclar aciÃ³n
ĠRe ino
ĠDIS P
Ġfor tal
Ġlogr ar
a f
Ġmo tivos
Ġsub venciÃ³n
9 8
Ġdetermin adas
I M
ic h
ĠCom is
ĠDel eg
a b
Ġestudi o
Ġpeti ciÃ³n
re o
Ġcer tific
idu os
Ġredac ciÃ³n
em or
Ġes cal
Ġfon do
Ġcompro b
Ġhab ÃŃan
I ER
Ġca be
Ġllev ar
Ġtar eas
ĠF ran
Ġ199 5
ĠGeneral idad
ĠA gr
Ġiden tific
Ġes to
Ġdom ici
ales tin
OS I
ul s
Ġmode lo
3 8
ro ga
Ã ¨
Ġprim ero
ĠHa ci
Ġneg oci
ari ales
Ġp ie
Ġs uelo
Ġdestin o
Ġreserv a
fi es
Ġefic acia
am a
ĠT ur
ĠespecÃŃfic as
Ġm ens
0 2
Ġmecan ismos
Ġconte xto
O D
Ġefec tivo
Ġre in
Ġconsum o
ĠM u
Ġcompro miso
Ġgra ve
Ġa bier
Ġraz ones
Ġmej ora
I ON
Ġre ducir
Ġad ju
tul os
Ã©r ica
Ġparti da
tiz aciÃ³n
on ia
Ġser ie
Ġperio do
ra el
Ġderiv ados
Ġaquel las
Ġdesempe Ã±
ĠIn dustr
ĠP en
ol a
ĠgÃ©n ero
ĠÃºn icamente
Ġel ev
Ã¡ tico
Ġnom br
Ġre quier
Ġde m
iv amente
Ġtr ib
M ENTE
ĠP ac
Ġhubi era
ci dad
Ġsegu ir
Ġsol uciÃ³n
Ġ <
Ã©s imo
an d
Ġt an
tam os
cul os
Ġdestin ados
z ada
0 8
obier nos
Ġsu fr
Ġac to
Ġ Î
Ġinstal aciÃ³n
Ġinteres ados
ic aciones
Ġconflic tos
iden tes
D AD
a bles
ĠProcedi miento
Ã ł
Ġdecre to
ĠA b
Ġbas es
Ġs ecre
Ġn Âº
Ã³s ito
Ġun os
Ġfigur an
Ġj ue
ĠSeÃ± or
Ġim puesto
Ġ4 5
ĠA pl
Ġmani fies
Ġpatrimon io
tric es
Ġan uales
entr as
Ġcom isiÃ³n
Ġefic az
6 1
Ġh id
ĠDIGITO Âº
Ġh ora
ĠInform aciÃ³n
g ados
Ġconoci mientos
Ġapo y
Ġa van
Ġde j
Ġo fer
ĠF eder
Ġprepar aciÃ³n
T AN
3 1
Ġba ja
Ġconvoca toria
Ġfacil it
ĠL E
4 7
Ġley es
ĠM i
Ġreg ional
ĠtÃ©cn icos
bre za
Ġobserv aciones
d or
Ġcuo tas
Ġcomer ciales
Ġconserv aciÃ³n
9 5
Ġacom paÃ±
Ġterror ismo
Ġpa c
Ġantece dentes
Ġpon er
Ġjuris dic
Ġsan ciones
Ġproce dentes
qu il
cul aciÃ³n
Ġperju icios
Ġsuper visiÃ³n
ĠAÃ± adido
ĠD IC
BL E
Ġaqu Ã©l
ĠM er
Ġdeba te
Ġam par
Ġorgan ismo
Ġcaus as
Ġha cia
i entos
Ġ3 6
Ġinici al
Ġde mo
Ġalgun as
Ġsuperfici e
i p
ĠÃºn ica
ÃŃ ci
ĠSiste ma
t Ã¡n
Ġel la
Ġagr ÃŃcol
Ġl lam
ens o
Ġconsigui ente
Ġcar ga
ĠN ue
al izaciÃ³n
Ġen con
Ġmencion ado
ĠA U
Ġliqu idaciÃ³n
Ġdes ta
Ġmen ores
Ġutiliz ar
d ÃŃa
Ġsolici tar
ĠmÃ©to dos
Ġleg ales
re as
Ġindic a
Ġ5 5
Ġcos tes
Ġan teriormente
Ġpes ca
in ar
ĠTribu taria
Ġindivid ual
Ġci ento
9 6
Ġcon se
Ġalcan ce
Ġimpor taciÃ³n
Ġpr on
Ġsent encia
SI ON
Ġsel ec
Ġf ran
Ġterritor ial
in os
tu ro
ĠU r
Ġbenefici os
Ġcategor ÃŃas
ĠHaci enda
h esiÃ³n
Ġa bor
ĠRe pres
Ġres to
ĠperÃŃo dos
ĠAR TIC
Ġpes o
200 8
Ġ3 7
Ġcambi os
Ġsuje to
Ġp osiciÃ³n
200 9
0 3
D EN
J O
Ġre m
ed ores
Ġproblem a
Ġadecu ada
ĠlÃŃ mites
Ġimpor tantes
v ech
Ġofici ales
S O
Ġpo breza
Ġde dic
ex to
Ġpartici par
Ġentre ga
Ġindustr ia
i re
Ġinde pendencia
Ġposi bles
ĠÂ ¿
ĠPro fes
Ġd in
Ġotor g
ĠÃ© l
ĠCAP ÃįTULO
Ġacci dente
Ġmunicip al
Ġcorrespon da
ir ma
Ġsu r
Ġar ren
Ġ4 8
Ġas imismo
Ġsuje tos
Ġ3 2
Ġim pa
l io
ĠInform e
Ġalma cen
ĠM il
a ble
Ġrecomen d
Ġac tivos
Ġpro m
Ġre forma
Ġof rec
a torio
Ġdis tribu
Ġfinanci ero
u p
um p
Ġv arias
i es
di do
Ġintegr aciÃ³n
4 2
Ġ199 4
Ġde pen
Ġacer ca
Ġporcenta je
Ġci entÃŃfic
dr Ã¡n
Ġvigil ancia
Ġqui en
Ġenten der
urs o
Ġsector es
Ġtrans c
ar ma
Ġrealiz ado
Ġb ar
ĠO per
Ġfabr icaciÃ³n
ĠenseÃ± anza
ta tivo
Ġgra v
Ġdeb ido
Ġa Ãºn
Ġfu turo
en d
Ġcontribu y
Ġ201 1
Ġ4 3
Ġinclu ir
Ġde v
Ġrespec ta
Ġre i
Ġinf raestruc
v aciÃ³n
Ġcon tar
Ġcon ex
ĠAu tor
ĠCOM UN
b ra
Ġas untos
om a
Ġco ordin
Ġc Ã¡l
Ġcolec tivo
ĠSE G
Ġalcan zar
ĠUnivers idad
ĠL i
Ġinici ativa
Ġcos te
Ġam bos
Ġag entes
Ġa guas
Ġtotal idad
Ġpre ten
Ġimpor taciones
Ġasegur ar
Ġexpres a
Ġhabi tual
Ġexpor taciÃ³n
Ġalgun o
Ġexen ciÃ³n
Ġcol eg
ĠPRES ENTE
Ġdis min
Ġexamin ar
i amente
G C
Ġinvers iones
Ġdom in
Ġcontr ario
Ġfav ora
I B
x im
ĠCo oper
ific ar
Ġh er
Ġinm ue
Ġde ven
Ġfinanci eras
Ġo cu
Ġconsul tas
Ġac on
ĠDo cum
Ġcom eti
ĠEconÃ³m ico
ĠCap ÃŃtulo
cion amiento
Ġalim ent
Ġsusp ensiÃ³n
Ġiden tificaciÃ³n
Ġmodific a
Ġres iduos
Ġdetermin ado
r endi
ĠA mbi
Ġal ta
Ġregul a
Ġestableci da
T UR
ĠR o
Ġex iste
an as
c lo
r Ã¡n
ta miento
fic ul
Ġefec tiva
Ġapro vech
Ġex tre
V EN
Ġaprue ba
di ce
Ġcons ta
Ġ4 6
Ġinclu ida
g Ã¼
Ġdeb idamente
Ġap re
as as
Ġadministra tivas
ĠAs ÃŃ
Ġmani fes
Ã©n dose
Ġ tor
Ġadi cionales
ĠA G
Ġar ti
O E
un cia
ĠP Ãºblica
Ġfabr ic
or ro
Ġfuer on
ĠTran s
Ġsan cion
M E
ĠespecÃŃfic a
Ġproduci do
3 6
ĠmÃ¡ qu
Ġa us
Ġrec a
ĠR enta
Ġexper iencia
Ġes cri
Ġv ul
Ġconsecu encias
Ġh ij
199 8
Ġper miti
ĠIN S
Ġrecu per
ha bilitaciÃ³n
Ġvol umen
Ġlabor ales
Ġespa cio
Ġhu bier
7 2
Ġsosten ible
Ġincumpl imiento
den cias
Ġcon cep
Ġdenom in
Ġpres tar
b en
ĠComer cio
tor a
ĠEnti dad
Ġdi ficul
Ġcomunic aciones
tor ios
. Â»
Ġdefini tiva
trimon io
ter as
ĠT exto
in al
ul as
F IC
ĠseÃ±al a
Ġay ud
ĠG estiÃ³n
Ġfundam entales
Ġdeclar aciones
Ġres idencia
ĠR el
Ġa Ã©
Ġtransi toria
ĠT a
Ġin g
urr ido
Ġinclu ye
ĠC i
ent ado
Ġenferme dad
Ġentr arÃ¡
IDAD ES
ĠAdministra tivo
ĠForm aciÃ³n
Ġmi entras
Ġinter ior
ĠM Ã©
Ġsu ministr
Ġinstrum ento
Ġju icio
Ġgu bernamentales
cul ares
Ġen vi
Ġdivers os
Ġapro pi
Ġim pres
ien das
iz ados
T AL
C L
ĠL eg
Ġper mitir
Ġesta tal
Ġglo bal
B oletÃŃn
Ġdivers as
Ġesta tu
Ġex puesto
ĠCO MI
tr ol
Ġgu ar
AD AS
Ġp un
Ġproduc tores
er aciÃ³n
Ġsu stancias
Ġinclu ido
Ġent ien
Ġn um
ri o
Ġl en
Ġequival ente
Ġ199 3
Ġdestin a
Ġdemo c
á ĥ
T C
cional idad
Ġimp u
Ġel eg
ĠPerson as
Ġmo tivo
s titu
Ġre pro
Ġproce da
Ġte l
Ġambi ental
E L
Ġprecep to
fici encia
fici entes
A d
Ġnucle ares
Ġte x
ĠD em
Ġac ces
Ġin specciÃ³n
ĠvÃŃcti mas
Ġdomici lio
ĠC OR
ĠSuper ior
ÃŃ gen
ti m
Ã¡ ticos
0 4
Ġcu adro
osi ciones
ĠEj ecu
hi bi
ĠM e
Ġl le
as es
5 9
rec u
Ġp rac
5 6
Ġvul n
Ġpr Ã³x
ĠT RA
urs os
Ġqui enes
Ġsolici tante
Ġau x
Ġlic encia
Ġqu Ã©
Ġal to
Ġinici ativas
Ġempres arial
I P
Ġdel ito
Ġpriv ado
Ġenten derÃ¡
ĠARTIC ULO
Ġcon cer
Ġterc era
Ġ3 4
g raf
7 4
Ġsin dic
Ġconc ur
g n
ta ble
ĠAutÃ³nom as
Ġcor ri
Ã¡ tica
c la
Ġsu minis
Ġconflic to
Ġt asa
Ġcal cul
ĠT i
Ġ =
Ġd Ã©
Ġexpres amente
Ġconsum id
Ġplan ificaciÃ³n
u almente
Ã© m
Ġnorm al
Ġcompro me
Ġen mi
Ġconsider ar
ĠUr ban
ĠAc ciÃ³n
ON O
Ġsu f
di ciales
Ġob tenciÃ³n
Ġre per
gÃ¼ edad
Ġopin iÃ³n
Ġ on
Ġcomun es
Ġedi fici
Ġem erg
es a
ĠFis cal
ĠT en
o p
ci pl
Ġm al
A r
Ġjus ticia
Ġp ala
Ġcompren de
Ġnues tro
Ġensa yo
cios o
Ġqu ÃŃm
Ġsal ario
Ġj unto
Ġmer cados
ĠÃºlti mos
Ġas esor
7 1
Ġi i
Ġprecis o
Ġent or
0 6
Ġexcep ciÃ³n
Ġformul ada
ĠfÃŃs ica
8 8
Ġcomp osiciÃ³n
ĠA S
Ġes col
3 9
ĠS ol
Ġcomun itario
Ġf om
Ġimpon ible
en das
l ig
ĠPRES ID
Ġad s
Ġdesarrol lar
Ġseg uro
Ġcomun idades
Ġcom paÃ±
Ġac tivo
ven ir
ĠespecÃŃfic os
Ġg obiernos
Ġincrem ento
Ġcar re
Ġsuminis tro
Ġ201 2
Ġexper tos
Ġ199 2
Ġnues tra
Ġcri terio
Ġexamin ado
me tros
ĠE E
Ġadop tadas
Ġ ON
Ġim par
ĠSoci edades
Ġadecu ado
Ġmodific ado
Ġadju dic
Ã ģ
Ġas is
Ġfamil ia
Ġejer cer
Ġs ens
ci ente
ĠPolÃŃ tica
ID O
ĠpÃ¡g ina
ĠBan co
Ġcon den
tr u
Ġpresent Ã³
201 0
Ġclas ific
fr ic
bi endo
Ġex ter
ĠSal a
Ã¡fic o
Ġviv iendas
Ġins cripciÃ³n
Ġcuo ta
Ġpa gos
g el
Ġf ase
ĠmÃŃn ima
Ġrespe to
Ġsu stan
ĠPa ÃŃs
al l
U M
ĠC am
Ġgar antÃŃas
ĠbÃ¡s ica
Ġterren o
di o
Ġutiliz ados
Ġde mos
Ġemple ados
Ġpres encia
G O
di das
Ġda Ã±o
Ġpro vin
ĠJurÃŃdic o
ĠE conomÃŃa
ĠF ÃŃs
k a
ide z
Ġcapaci taciÃ³n
TR A
Ġcompens aciÃ³n
o ce
3 2
âĢ ¦
Ġg an
g e
Ġsimil ares
os p
ĠRe la
Ġrealiz a
teri al
Ġpues ta
us ti
ĠB ru
Ġser ÃŃa
Ġdef ensa
Ġr eno
3 4
in ta
Ãºm ero
iz ada
Ġadministra tivos
Ġreg lamento
ĠDur ante
Ġ ;
ĠTÃ©cn ico
Ġtecn ologÃŃa
Ġr enta
C N
Ġexclus ivamente
Ġcentr al
Ġex cepto
Ġ8 5
Ġm or
Ġestrateg ia
ar me
G AN
Ġ8 0
ĠTerritor ial
Ġcon ci
EC H
Ġpropi as
Ġ4 9
dic os
olog ÃŃas
Ġinter no
Ġcre ar
201 3
t Ã©g
il la
Ġinici o
Ġpr Ã©s
Ġfundam ental
ĠNue va
cional mente
Ġcons egu
Ġtr Ã¡fico
iv as
y endo
ĠbÃ¡s icos
ĠIn v
ĠOb je
Ġefectu ar
ĠC r
ĠS ent
ar tÃŃculo
tic amente
Ġvig encia
Ġper miso
Ġac u
Ġinterpre taciÃ³n
Ġconcre to
Ġconcep tos
Ġcompro misos
Ġf omento
ĠC AS
Ġcompon entes
Ġmuc hos
Ġd u
ĠUN E
Ġdefini ciÃ³n
ue la
ĠG ener
ĠRepres ent
NU D
ĠN ivel
Ġpla zos
Ġre tir
ĠE C
ĠO ri
Ġaum entar
Ġ4 2
i ciÃ³n
Ġa t
tr ar
edi r
Ġ. .
Ġdi ferencia
Ġm uer
Ġestar Ã¡n
Ġadministra ciones
Ġun i
9 2
Ġla do
Ġhom olog
Ġpen al
cion ar
Ġplen amente
Ġcontin g
Ġre duci
Ġl ec
Ġpre gun
ĠCar ta
I T
Ġre v
ĠmÃ©to do
g aciÃ³n
P ER
Ġp i
ĠDe f
Ã¡ p
Ġmencion ados
ar ca
lo g
Ġentien de
Ġper s
ĠUn ido
Ġcan dida
ĠcÃ¡l culo
Ġperson ales
Ġper mite
P ON
Ġ199 0
Ġampar o
Ġen fo
Ġto ma
6 2
Ġf recu
ĠEspa Ã±
Ġimpa cto
Ġfr on
ĠC uer
Ã¡ us
ĠG ran
Ġ 99
a de
eg o
Ġe conomÃŃa
Ġreci bir
em a
Ġex tin
Ġbu ques
Ġb o
Ġmencion ada
ta tiva
ĠT ÃŃtulo
Ġdirec trices
Ġref ug
Ġci clo
Ġmo tiv
Ġ4 4
Ġelem ento
Ġ201 3
ĠPro vin
Ġten ido
c aciÃ³n
os a
ven es
tr al
pa Ã±a
Ã³ venes
Ġrei ter
Ġresponsa bles
Ġcre cimiento
v ar
Ġ ul
Ġindustr ial
CI AL
di endo
Ġcir culaciÃ³n
Ġre habilitaciÃ³n
ĠC AR
Ġr ur
Ġtransp ar
Ġpel igr
Ġfuer za
Ġreal icen
im as
Ġte le
ĠPro yecto
iz aciones
Ġraz ona
Ġac um
Ġaj us
w w
Ġrealiz ados
i ten
Ġb is
tr ado
al e
I OS
Ġvac aciones
emor ia
Ġas unto
Ġf lu
Ġparti culares
ten cial
8 5
dal idades
Ġrel ig
Ġfir ma
P OR
Ġres tric
Ġcomercial izaciÃ³n
b ur
ĠP U
ÃŃs tico
Ġcompe ti
e amiento
Ġp uer
ĠPres idencia
Ġ4 1
U P
un ales
Ġrespec tivamente
Ġescal a
F EC
ĠpÃ©r dida
Ġf er
ed or
Ġmo vil
Ġcomun itaria
le x
ĠPen al
Ġalter na
c us
ĠÃ¡mbi tos
ĠI den
Ġv el
ĠPRESID ENTE
Ġpro ve
A B
ĠtrÃ¡ mite
Ġparticip antes
0 7
se las
Ġg esti
ad u
Ġcumpl an
Ġampli aciÃ³n
Ã ī
ĠP A
eb ra
Ġun as
ĠjurÃŃdic as
Ġ5 8
Ġsu ma
Ġinstruc ciones
Ġanti gÃ¼edad
ĠCh ina
tr Ã³
Ġingres o
Ġsu pon
jer ÃŃa
Ġdeman da
Ġprac tic
Ġconta min
Ġper spec
Ġcu er
Ġto mar
ĠMinis tros
Ġus os
olÃ³g ica
Ġex terior
ag Ã©simo
Ġrealiz ada
Ġadu an
ĠLeg is
Ġmin or
Ġasoci ados
D UC
iz o
Ġpres enta
aliz ado
Ġrealiz arÃ¡
Ġf Ã¡
Ġesen cial
di rec
Ġcivil es
Ġhij os
G A
en io
Ġho y
Ġrendi mientos
Ġk g
Ġde uda
Ġp endi
ĠBru selas
ĠCO MO
RE TAR
Ġextraordin arias
Ġre des
9 7
Ġcon tiene
Ġesti me
Ġarren d
Ġv Ã¡l
Ġrendi miento
ĠâĢ ¦
Ġpol icÃŃa
ri a
Ġp alestin
Ã© tica
Ġj Ã³venes
ĠM isiÃ³n
Ġg eo
Ġauton Ã³m
Ġgaranti z
ĠEUR O
Ġmedi cam
Ġrequisi to
Ġconven ios
Ġefec tÃº
ĠP es
ĠtÃŃ tulos
Ġpas ivo
rÃ¡ tica
Ġclas ificaciÃ³n
ĠO blig
rÃ¡ fic
ĠSeg Ãºn
Ġb ru
Ġ7 0
ĠSeg undo
Ġen c
Ġin d
Ġins cri
Ġclas e
Ġg en
Ġtrans ferencia
Ã¡ mar
Ġmecan ismo
Ġcomplem ento
v ent
Ġtransp or
Ã ¤
Ġdestin adas
Ġentor no
Ġso por
ĠfÃŃs icas
I n
to do
Ġbu en
ĠGener ales
201 1
bl os
Ġaudi encia
MI ENTO
Ġcu an
Ġdi ez
Ġmil itar
9 4
Ġde ducciÃ³n
Ġgas to
os as
ĠG ar
ĠM O
Ġinclus iÃ³n
Ġfin ales
tr es
IC O
Ġve in
n es
Ġp ad
Ġmo d
n et
er se
199 5
Ġreg las
ĠCom Ãºn
Ġcal ific
ĠT ER
Ġintercambi o
Ġlim pi
ĠpÃ¡rraf os
Ġactu almente
Ġimp ug
o to
Ġusu arios
Ġin con
R AN
Ġperci bir
Ġreg iones
Ġh arÃ¡
Ġofici o
ĠAm Ã©rica
F ICI
Ġfac tores
Ġag ra
ĠNorm as
ĠC um
ĠFeder aciÃ³n
Ġg obierno
Ġfam iliar
u mi
ĠespecÃŃfic o
Ġapor taciÃ³n
err ami
ĠaÃ± ad
Ġmu tu
B RE
Ġmo dalidades
Ġcr isis
Ġpro ducir
ĠpÃ¡r r
ĠCooper aciÃ³n
Ġdel itos
Ġdis capacidad
id ar
ĠJu z
Ġcos as
ĠOb serv
Ġc la
ĠM al
Ġcons ign
m edi
Ġaleg aciones
tur aciÃ³n
Ġterren os
v Ã©ase
Ġso cios
v ÃŃa
Ġdi Ã¡logo
Ġm Ã³d
ĠAmbi ente
6 7
er ra
ĠO B
T ACION
ĠCol eg
Ġm inis
ĠPac to
Ġtitul ares
ĠIN TER
ĠTer c
Ġ5 1
Ġpas a
Ġam bas
ĠÃ©s tos
Ġ199 1
C H
201 2
Ġa z
e te
Ġh emos
Ġcertific ados
ĠTra baj
Ġad ministr
TI N
Ġemiti Ã³
Ġofici nas
i tud
Ġadop tado
hibi ciÃ³n
Ġpr os
199 7
Ġpreocup aciÃ³n
Ġindependi ente
5 7
ĠG r
ĠN Âº
Ġin tens
on el
l ante
ĠRE AL
Ġsubs idi
ue las
Ġref or
Ġpermi ta
ĠA pro
ĠPr incip
Ġabs ol
ĠmÃ¡qu inas
Ġmedi a
ĠS ud
ĠInv estig
Ġmar cha
titu d
ĠI MP
ĠEURO PE
ĠDi ario
ĠPro tecciÃ³n
bil i
Ġsuper iores
Ġestra tÃ©g
Ġprev ent
Ġmodific ar
Ġde ten
Ġ 000
âĢĿ .
Ġproteg er
l Ã©s
ĠSent encia
Ġad j
Ã© u
es tre
S A
Ġcontrol es
Ġres uel
e ta
Ġtr adi
u z
ĠseÃ± or
Ġconclus iÃ³n
TR O
Ġpro f
00 01
ĠD IR
i aciÃ³n
im ientos
it ares
Ġsom eter
Ġc Ã³digo
tens iÃ³n
Ġrec om
Ġproce der
duc tos
ĠIs rael
Ã© pti
Ġg o
ĠCON SE
ĠS A
Ġte mas
ĠI D
Ġconj un
Ġcomple ta
EN TES
9 1
Ġdif usiÃ³n
Ġ5 6
Ġ9 1
Ġneg ociaciones
el l
am en
ĠREG LA
Ġ bl
Ġfu entes
an ÃŃa
Ġpo de
ĠAl im
Ġrad io
ĠR a
Ġestableci mientos
ĠIN F
or r
Ġvig entes
ĠSEC RETAR
4 1
ĠCon ten
ĠEn tre
Ġvo taciÃ³n
Ġt ari
Ġev oluciÃ³n
Ġafec tado
Ġocup aciÃ³n
Ġinc om
i anza
ĠFÃŃs icas
Ġarm on
in ci
f as
EN CIA
Ġpro h
ĠT el
Ġregul adora
Ġobliga torio
Ġpar ece
ĠFin anci
grÃ¡fic a
MIN ISTR
c ur
po co
Ġcom por
Ġf arma
p ÃŃ
ĠSU S
Ġni Ã±o
Ġconclus iones
Ġm m
Ġ 01
ad Ã©m
Ġem isiÃ³n
ĠH echo
. âĢĵ
Ġju bil
Ġhom bres
tor ÃŃa
en de
Ġhabr Ã¡
Ġ4 7
Ġtras lado
ion ado
Ġfal tas
ita t
Ġcomb usti
Ġbenefici arios
Ġleg almente
Ġas ociaciones
Ġp s
DO P
Ġretribu ciones
Ġdispon ible
Ġinfrac ciones
Ġpos e
Ġdeber ÃŃan
I AS
ĠB OE
Ġadap taciÃ³n
Ġ5 2
Ġ id
Ġregul ar
ĠI gu
Ġar bi
Ġ201 4
L AN
ĠI ra
Ġformul ar
Ġem isiones
ĠCol ec
C on
] ..
ÃŃgen as
er tura
âĢĿ ,
ĠEs to
ĠRepresent ante
Ġr Ã¡p
Ġderiv adas
ĠE mpl
Ġmues tra
Ġterc ero
osp ital
B A
Ġcon v
Ġc h
ĠR EC
Ġdis cipl
Ġinmedia tamente
Ġju diciales
Ġmuc ho
Ġse de
Ġpue blos
later ales
ĠP u
Ã¡n do
Ġcontribu ciones
Ġapro xim
Ġencuent ra
Ġc es
Ġconsider arÃ¡
Ġad hesiÃ³n
Ġestrateg ias
Ġcu bier
ĠEs tu
3 7
Ġsuje tas
ĠSoci ales
ul os
ĠS a
Ġemerg encia
ĠSER V
ĠEn erg
Ġsex ual
Ġimpl an
Ġur g
Ġconc entr
Ġtecn ologÃŃas
ĠAu di
Ġmo v
Ġ x
en om
ci to
ĠDes de
Ġconc urr
Ġimpug n
Ġconsider arse
ĠAs ociaciÃ³n
Ġdi se
Ġ7 5
ĠTR AN
ĠDem oc
EX O
Ġl ib
Ġp ensiones
Ġpl eno
Ġexig e
Ġreal idad
Ġcal ificaciÃ³n
Ġfuncion ario
Ġdispon ibles
Ġf ores
ĠLegis la
Ġre cepciÃ³n
ĠF uer
Ġinmue bles
Ġresul te
ĠTrabaj adores
Ġin t
eg aciÃ³n
Ġreclam aciones
ĠEst as
Ġmencion adas
ĠpolÃŃ ticos
Ġtra tados
ci endo
Ġqued arÃ¡
Ġil ÃŃci
Ġe dific
ent ario
Ġtransform aciÃ³n
Ġen um
Ġpresent ada
g ada
Ġade lante
Ġindi rec
T AD
Ġproporcion ar
Ġoportun idades
J E
Ġco ber
Ġa er
Ġin no
tis ta
Ġigu almente
ĠEs tos
Ġextraordin ario
Ġr ig
Ġ5 7
Ġcontr ibuciÃ³n
de ro
ĠIra q
Ġespeci es
Î ±
Ġ5 4
Ġelim inaciÃ³n
ĠTÃ©cn ica
Ġconst ar
Ġcontribu ir
Ġincorpor aciÃ³n
ĠDIR EC
Ġcelebr aciÃ³n
Ġconven iente
Ġ5 3
Ġcurs os
in aria
Ġpre fer
ĠSu pre
ĠA ustr
Ġconstitu ciÃ³n
TI TU
Ġgran des
Ġcer tificaciÃ³n
Ġde fec
Ġfis cales
w a
Ġconstitu yen
Ġaten der
i que
Ġneg ociaciÃ³n
Ã¡m enes
ĠV er
Ġesta bilidad
ci Ã³
Ġ---------------------------------------------------------------- ----
5 4
ec has
Ad d
ĠRel aciones
m en
Ġjurisdic ciÃ³n
m on
ec en
Ġlegisla tivo
Î ¿
Ġent endi
ul ares
Ġ0 8
ĠUrban ismo
di s
Ġfuer zas
Ġcu b
ĠF IN
Ġlo g
U ER
Ġanterior idad
Ġsolici ta
Ġrepar aciÃ³n
ex os
Ġ5 9
Ġentre gas
Ġcom pati
v ia
5 00
Ġco pia
ĠO tros
Ġinfrac ciÃ³n
Ġh errami
OR MA
ĠÃ¡ rea
ĠMedi das
Ġcomprendi do
ĠDO GC
Ġrecog ida
Ġexpres iÃ³n
Ġpue blo
D OS
an cias
mi l
ĠSan t
Ġre lev
f il
Ġresolver Ã¡
Ġi de
m isi
Ġampl ia
ĠAl to
ĠUN I
Ġobten ido
Ã³r m
Ġco inci
Ġ0 80
Ġsel ecciÃ³n
Ġso cio
ĠT ar
Ġprev iamente
TIV O
ÃŃm enes
ĠTo dos
ID OS
Ġj e
Ġlen gua
Ġalmacen amiento
Ġ201 5
Ġdetal l
ĠApl icaciÃ³n
Ġbu ena
Ġfir me
Ġasesor amiento
ch e
Ġofici na
Ġconf igur
Ġsan itaria
5 1
AN DO
Ġe ta
TIV A
Ġdep Ã³sito
Ġsometi do
ĠenseÃ± anzas
Ġrecib ido
ĠVI H
Ġpudi eran
Ġ6 2
Ġvo to
or o
ĠAl em
Ġenfo que
6 4
vers iÃ³n
ĠA f
us ia
Ġcomp u
Ġcul tural
den tal
M AS
Ġesta ba
Ġing lÃ©s
Ġb al
Ġtu vo
tin a
enom inaciÃ³n
Ġpres cri
Ġalim entos
Ġinteres adas
or as
Ġal g
Ġex port
8 7
" >
Ġaprob Ã³
om un
Ġselec cion
Ġpl ena
ĠpÃ©r didas
ĠN Ãºmero
ig na
ĠSoci edad
L AS
ac ciÃ³n
Ġpertin ente
ĠEN TR
TERI OR
Ġextran jero
Ġmon e
ĠCon trol
Ġas ociaciÃ³n
Ġmens ual
Ġutiliz ando
Ġest rec
ĠbÃ¡s icas
ti que
Ġ os
ĠC al
al ia
un a
Ġco her
ĠSERV ICI
form e
Ġanti cip
Ġac us
omen d
Ar tÃŃculo
ĠE qui
Ã³ vil
ĠDISP OSI
Ġpres iÃ³n
ta je
ĠpolÃŃ tico
Ġesfer a
Ġconsegu ir
y Ã³
Ġdi m
Ġcl Ã¡us
ĠA DOP
Ġconten idos
Ġf lex
ĠmÃ© dico
Ġtribu taria
Ġauto mÃ¡
Ġeurope a
uer ra
Ġoportun idad
5 3
Ġm isiÃ³n
Ġdise Ã±o
Ġre em
Ġpes ar
ĠMIN ISTR
Ġsal ida
L os
g er
Ġdes can
ĠLa bor
Ġmar gen
ĠAutor idad
ro gas
Ġsal arial
Ġrequier e
Ġs uel
ĠDef ensa
Ġpres entes
ĠIn f
Ġmil itares
Ġrec ha
Ġf rac
ĠI r
ĠPrim ero
tr ina
ĠEconÃ³m ica
ĠPresu puesto
Ġestable zca
Ġefec tivamente
ĠDis p
Ġaus encia
p ol
log ÃŃa
de l
Ġdificul tades
ĠagrÃŃcol as
ĠLegisla tivo
Ġsup rim
an cel
Ġvuln era
ĠCentr al
Ġelabor ar
ĠC er
Ġe dificaciÃ³n
or g
S e
Ġbenefici o
ĠAgr icultura
ÃŃs ticos
Ġrem un
Ġiden ti
p ciones
Ġprogres os
Ġcul turales
Ġplan o
Ġme z
Ġimp osiciÃ³n
Ġsan ciÃ³n
Ġevalu ar
ĠSupre mo
Ġev ent
Ġobten idos
te m
Ġindic ado
Ġofer ta
Ġpermi tan
ti enen
Ġjus tificaciÃ³n
IC ACION
ĠJuz gado
ĠPor tu
ar t
Ġinclu yen
ump ing
ĠS ra
Ġrefug iados
Ġac adÃ©m
Ġaplic arÃ¡n
Ġfam iliares
pres iÃ³n
Ġori entaciÃ³n
Ġcober tura
Ġv entas
Ġac ta
Ġinteres ada
Ġsecre tarÃŃa
u b
Ġap ertura
on ces
ĠF UN
Ġexp osiciÃ³n
5 2
EN TA
TA MEN
tiv idades
Ġcom en
Ġpar ce
Ġsa ber
Ġes tric
Ġt onel
Ġca tal
Ġcarre tera
Ġcuar to
N O
Ġdetermin ada
Ġes paci
Ġfavora ble
Ġrefle j
] .
Ġpar Ã¡
e j
T ADOS
ĠM unicip
Ġpas ado
ĠSO BRE
Ġ6 1
u de
ĠÃ¡ reas
Ġrecuper aciÃ³n
ce der
Ġayud ar
Ġlimpi eza
id ado
tu aciÃ³n
de re
Ġpresu puestos
Ġtitular idad
Ġpes qu
Ġr entas
Ġver ificaciÃ³n
Ġmanifies to
ĠSub direc
Ġreal ice
Ġesfer as
Ġ eran
Ġlug ares
Âł Âł
Ġl ig
Ġmod alidad
Ġdi v
ĠAN EXO
in cu
Ġmar ÃŃti
Ġesen ciales
tific ar
Ġpodr ÃŃan
Ġexper im
Ġpl us
t Ã¡
Ġdispon er
pl om
Ġadecu adas
ĠT ras
Ġvolun tad
ent an
Ġimpor tes
per a
ĠTran sp
iden ta
di r
Ġanim al
________ ________
Ġasign aciÃ³n
Ġm ic
ĠS IG
Ġel ector
Ġdeleg aciones
6 9
Ġenferme dades
Ġalum nos
ci dos
Ġre tribuciÃ³n
ĠseÃ±al ado
Ġterritor ios
a to
Ġconce der
Ġarrend amiento
Ġresponsa bilidades
Ġtoda vÃŃa
Ġempres ario
ĠR usia
ist Ã³r
Ġparticip aciones
ĠPÃºbl ico
l ey
end ario
Ġadecu ados
ĠPaÃŃs es
Ġreg la
ĠS OL
Ġsuper vis
Ġconta cto
Ġelec ciones
Ġoblig ado
ri Ã³
Ġde ro
Ġdesesti m
Ġprecep tos
gu ar
Ġar ch
ĠMu jer
ĠCom p
ĠSEG UN
Ġhi jo
Ġr en
x ta
ĠÃ© stas
ĠDemoc rÃ¡tica
ĠIndustr ia
ĠA h
Ġconcre tas
ti o
ĠB enefici
ĠB o
ĠAD MINISTR
qu ÃŃa
ĠseÃ±al ar
fr on
Ġhomolog aciÃ³n
iden cial
an til
Ġind ÃŃgenas
ĠRec ursos
Ġalg Ãºn
Ġv ers
ĠM IS
Ġbl an
Ġaprob ada
Ġsatisfac ciÃ³n
Ġhaber se
Ġfom entar
ĠOR GAN
Ġem p
Ġseg uros
Ġposi bilidades
ĠS on
Ġerr or
partam entos
Ġapor taciones
plem ento
ĠPro mo
Ġespaci os
Ġsim pl
201 4
ĠT O
igr aciÃ³n
Ġbenefici ario
TO RI
te d
ĠL u
ĠO c
Ġh al
Ġhor ario
in ario
lan dia
Ġdetermin a
ĠelectrÃ³n ico
Ã³ mo
Ġpro ba
Ġcomp ra
Ġg es
ÃŃ cil
Ġsub ven
h ar
Ġpas ivos
Ġabs or
ĠPar tida
Ġfij a
CI AS
ec a
P F
Ġpron unci
Ġconstitu tivo
Ġreglament ariamente
ĠOrgan ismo
Ġbu que
Ġreserv as
Ġapoy ar
Ġimposi tivo
Ġgesti on
y ug
Ġca pa
ig ro
Ġdif ÃŃcil
Ġde pendi
Ġoper a
ĠN i
Ġcor por
. "
ent arios
Ġaqu ÃŃ
ĠlÃŃn eas
SI ÃĵN
g ue
Ġemple ado
ĠO bras
ĠREGLA MENTO
ĠD iv
ĠPR IM
Ġcom ba
ĠS I
Ġdel iber
Ġinter poner
Ġinf lu
e cimiento
vi ene
Ġde duci
ci entes
Ġprodu zca
olÃ³g ico
Ġcl ientes
Ġapre ci
Ġclar amente
ĠCuer po
ĠCONSE JO
ĠjurÃŃdic os
ic ado
Ġcom ien
Ġi di
br ica
Ġesti ma
Ġm ad
Ġf e
ĠC ultura
Ġu b
ĠEurope as
ec omun
Ġdeclar ar
Ġutiliz ado
ĠRe f
Ġexist ente
Ġmo tor
ĠFran cia
Ġcer r
Ġent onces
Ġpubl icidad
Ġcam po
ĠAlem ania
Ġm asa
ĠG R
ĠAP L
Ġ7 2
Ġd ada
Ġmedio ambi
Ã¡m ica
ĠC os
Ġdestin ado
Ġel ecciÃ³n
p ular
oc ales
MI TI
lan da
ĠConse jerÃŃa
Ġa ta
t n
Ġdenom inaciÃ³n
g adas
Ġsim ul
an ce
Ġante laciÃ³n
y as
Ġcon ocer
Ġcircun stancia
Ġexpedi ciÃ³n
Ġrec ord
Ġcub rir
Ġc Ã³n
Ġnucle ar
Ġfal le
V IS
ĠEX C
ĠP la
m ent
Ġexis ten
Ġaer ona
Ġ198 9
ĠC orte
Ġar ancel
Ġconsumid ores
Ġsec und
Ġac e
Ġin mo
Ġordin ario
Ġejem pl
Ġp an
Ġdisfru te
ĠmÃ© ri
Ġsu ficientes
Ġdi g
Ġpel igro
Ġcar b
Ġlic encias
later al
Ġar g
Ġpeque Ã±as
ĠV ista
Ġinst ancia
Ġdoc trina
ĠDIC TAMEN
ĠCu ar
Ġequi p
Ġt esti
Ġdifer encias
ĠM AR
Ġauton omÃŃa
Ġs il
Ġf il
Ġrefer ido
i taciones
ĠÃ© x
T S
Ġas um
Ġperci b
Ġv eces
IN A
Ġcolec tivos
bil it
Ġpudi era
Ġlleg ar
igu en
val uaciÃ³n
Ġconsi dere
ir as
Ġrespec tivos
Ġpropor ciÃ³n
Ġt re
Ġh Ã¡
Ġcomple to
ĠEspaÃ± ola
ĠEx teriores
Ġp idi
Ġconsider arÃ¡n
i ado
Ġ om
F ER
TI L
Ġplan tilla
ĠFin alidad
= "
Ġrefier en
ĠPresu puestos
it ales
ĠJu dicial
Ġsolici tado
Ġrecom ienda
Ġa go
Ġapar atos
Ġpre venir
Ġindic adores
Ġconsider an
Ġactu ales
Ġc esiÃ³n
Ġfamil ias
Ġim puestos
Ġviol aciones
ĠES PE
RES PON
Ġacer tado
ĠPre venciÃ³n
fi que
Î ¹
tr ada
ĠC ada
P C
Ġsu pone
Ġinter nos
ĠelectrÃ³n ica
Ġactu aliz
k istÃ¡n
olÃ³g icos
Ġle tras
duc e
ĠDE B
ĠPrim era
Ġmodific ada
ĠO p
C RE
Ġof re
or k
Ġf oto
Ġinform ar
tu ales
Q UE
Ġv isi
ĠCOR RESPON
8 9
Ġjubil aciÃ³n
Ġal l
ta ur
ĠCr Ã©di
âĢ Ķ
bil izaciÃ³n
Ġmin u
Ġm emoria
Ġprincip almente
Ġe ficiencia
Ġf ich
Ġfortal ecer
Ġf Ã³rm
Ġcontempl ados
Ġcon ver
Ġconten cioso
Ġta bl
Ġedifici os
Ġh on
Ġhubier an
ĠF echa
k o
ĠbÃ¡s ico
ĠP az
Ġre misiÃ³n
Ġremiti do
Ġmis iones
Ġdes cripciÃ³n
Ġnum eros
~ ~
ĠTRAN S
ĠCon di
i quen
Ġen cam
Ġaf irma
ci mientos
g ica
ÃŃ es
Ġp ena
ĠGu ar
Ġ( *
Ġtra tar
Ġmay ores
ĠCentr os
Ġensa yos
Ġpro hibiciÃ³n
Ġrealiz arse
ĠIr landa
Ġ bre
ĠT or
pi os
Ġmuer te
ul idad
Ġtr im
Ġconten idas
ĠC las
Ġhuman o
Ġ6 5
ĠJ os
ici a
om bre
Ġdes arme
Ġg uerra
0 9
Ġrecon oce
Ġa v
is ti
ĠME DI
Ġil eg
Ġpo tes
Ġfacul tades
Ġnues tros
Ġeduc ativo
Ġper fec
ad Ã¡
Ġencar gado
Ġtrib unales
ĠES TADO
ĠSECRETAR IO
Ġprim as
ĠFa cul
V E
ĠPar ti
Ġesper a
Ġl uz
ĠEmpl eo
ĠInvestig aciÃ³n
h or
do le
Ġproce derÃ¡
Ġmedicam entos
Ġac tÃº
Ã¨ s
Ï Ħ
Ġperspec tiva
r den
Ġsubven cion
ĠProvin cial
ĠV ig
Ġdirig ida
Ġpro vo
Ġautoriz ado
Ġoc ho
c ciÃ³n
ĠIn terior
Ġfabric ante
ĠAb og
Ġa is
ĠA g
ĠRela tor
Ġde tec
ĠMil enio
ĠEnerg ÃŃa
Ġindic aciÃ³n
vi era
Ġdirec tor
ĠV Ã©ase
v ir
Ġso porte
i f
CE P
Ġgra cias
Ġdesesti mar
ĠEnti dades
ice pres
ĠADOP TADO
Ġeurope o
Ġinform a
Ġidenti dad
ĠE FEC
Ġprior idad
ĠM Ã¡s
Ġpreten de
Ġencam in
Ġconstitu cional
8 4
ĠColec tivo
ĠC ual
Ġafec tadas
Ġn ulidad
n idad
AN TE
Ġtranspar encia
g arÃ¡
ĠPol icÃŃa
Ġins er
ĠM esa
ĠEstatu tos
Ġpas o
Ġocas iÃ³n
Ġinform Ã³
ĠparÃ¡ metros
Ġcam paÃ±a
Ġ5 00
Ã¡mar a
de z
c ho
ig i
Ġcar ta
Ġade lan
ĠcÃ³n yug
8 6
Ġproce dente
Ġconj unta
-- -
ong itud
cep ti
Ġindustr iales
Ġe tique
Ġv an
Ġinfraestruc tura
Ġintegr ado
Ġherrami entas
ÃŃ os
Ġori ent
Ġ blo
ĠG as
Ġcons truc
ĠPU BL
Ġme tros
Ġprevis iones
O G
r in
8 3
Ġna cimiento
ci dental
Ġt asas
Ġex ten
Ġad miti
Ġor gÃ¡n
ĠÃ ĵ
ĠIn gen
Ġconjun tamente
et arios
ĠAc tividades
Ġh izo
Ġas umi
bi rÃ¡
Ġestable zcan
ĠP e
Ġan al
Ġv aria
ĠVII I
Ġfij ado
Ġaplic ando
Ġde tenciÃ³n
Ġdetermin arÃ¡
Ġre form
la bor
Ġparcial mente
an im
ĠAu x
ĠD enominaciÃ³n
ĠN IF
Ġac tiva
v ina
ug os
Ġan exos
Ġpro pone
Ġ8 4
Ġdes a
Ġo pciÃ³n
Ġin capacidad
Ġam or
Ġtras l
Ġarg um
Ġan Ã¡lo
ĠMan ten
Ġ198 8
Ġmo der
ĠCum bre
t t
ra be
Ġdev oluciÃ³n
ier ra
Ġsindic ales
8 2
ĠCas tilla
Ġf ru
Ġmues tras
Ġpos teriores
Ġexclus iÃ³n
Ġperten eci
Ġpriv adas
Ġampl io
st al
Ġan aliz
Ġcier to
UES TO
Ġm ol
Ġprior idades
Ġpriv ada
ĠS em
ĠGeneral itat
Ġacep taciÃ³n
p ul
Ġsustitu ye
j era
ĠC l
Ġdes c
Ġcal endario
Ġdesempe Ã±o
Ġexpedi entes
Ġdi lig
Ġclar o
ana der
tion al
Ġ14 9
Ġsu stancia
Ġobst Ã¡
Ġden uncia
Ġtitul ado
Ġempres ariales
Ġtre inta
Ġautoriz ados
L as
Ġincon stitu
ĠÂ »
ĠPl us
b u
Ġprec e
pu to
Ġdel im
Ġdomin io
Ġtonel adas
Ġfun cional
Ġoblig ados
Ġcuer po
Ġcorri ente
ĠJ o
ĠP NUD
Ġpresent adas
o j
Ġinmedia ta
Ġefectu adas
Ġha ga
Ã ¶
Ġcol um
Ġutiliz arse
Ġp ide
Ġviol aciÃ³n
Ġregis tros
v as
Ġdo ble
Ġtrib unal
Ġrecomend aciÃ³n
199 0
Ġsus cri
ĠAu ton
Ġconsol idaciÃ³n
Ġcomplement arias
Ġcomprob aciÃ³n
an dia
Ġal co
AR AN
c Ã©u
Ġtam poco
Ġencuent ran
ific ado
Ġautoriz aciones
ĠOR DEN
Ġalim entaciÃ³n
ĠSan ta
ĠG al
Ġdes con
Ġmuc has
Ġorden amiento
ĠAs ia
Ġtransc urrido
Ġb or
ĠES TE
p al
Ġ >
Ġindivid uales
ĠDiv isiÃ³n
mis iones
199 4
Ġdisposi tivo
ag n
ru pciÃ³n
C U
ra cia
g al
ĠF E
fric ana
s iÃ³n
ĠG in
Ġaum ent
gen o
Ġem pe
Ġ9 2
Ã³m puto
ci ma
ĠAR T
ĠT ema
ĠES PA
Ġv eg
Ġdescan so
sp ir
ĠColeg io
Ġdi stancia
Ġconsider ado
Ġrec urr
Ġtra to
ĠP ue
ist ente
Ġelim inar
Ġdetermin e
Ġac lar
ĠPro ductos
Ġs ac
199 6
Ġm it
S IDA
ec on
Ġcons ent
Ġpatrimon iales
bi Ã³
Ġespecific aciones
E s
ĠSiste mas
ĠEsta tal
ĠP OD
201 5
TUR A
Ġh e
u tr
ĠÃ©x ito
Ġconf ianza
s ito
O P
ĠTo do
Ġm iras
rendi za
Ġprogram aciÃ³n
ĠA unque
Ġcons iste
Ġpr isiÃ³n
Ġdismin u
Ġutiliz adas
Ġpro pon
ĠEs lo
Ġagr up
Ġajus te
Ġti erra
Ġextran jeros
s er
Ġlim itaciones
Ġenum er
ĠPa trimonio
Ġtem pera
Ġconf irm
) -
Ġne to
Ġal go
x i
S ON
Ġestad ÃŃsticas
Ġsub ra
Ġsuje ta
Ã¡ ticas
Ã³s itos
p ru
ĠT ecn
Ġfac tura
8 1
ĠC EN
unici pios
Ġpendi entes
Ġpie zas
Ġre estruc
ĠProfes ional
ĠAu to
Ġac ceder
Ġpad res
Ġm os
ar an
Ġprev isiÃ³n
Ġgra tu
ĠH er
cep tor
Ġespeci e
tes is
L OS
Ġsus cepti
Ġd arÃ¡
ĠAs esor
Ġins u
ci na
ĠR ector
Ġpos teriormente
Ġagra de
Ġobliga toria
Ġsu m
Ġdeb an
Ġh istÃ³r
Ġr an
ĠespaÃ±ol a
Ġcontribuy ente
Ġni Ã±as
ĠUnivers idades
ĠMiem bro
Ġin tenciÃ³n
ĠTR L
Ġex ac
ue go
Ġhacer se
Ġefectu arÃ¡
Ġa ire
Ġrecon s
Ġinstitu ciÃ³n
ĠS ector
CE F
ĠlÃŃ qu
Ġcre a
C C
Ġinc ent
t ente
Ġseman a
ĠT al
Ġre ales
Ġex ista
Ġc Ã³mputo
ren de
ĠSIG U
tÃŃ s
CE D
N A
Ġprim eros
Ġcomun itarios
ĠMo dificaciÃ³n
Ġsi ete
Ġfer ro
Ġdeb emos
Ġinde b
Ġdem ora
Ġredac tado
Ġin ver
Ġconduc ta
Ġde partamento
ad ministra
Ġadjudic aciÃ³n
Ġregul an
Ġsufr ido
Ġcol or
Ġcom isiones
Ġtar dar
Ġincom pati
ĠDe termin
IMI ENTO
Ġcl iente
duc ciones
anim idad
Ġcu yos
Ġrazona ble
a toria
it Ã©s
ur as
Ġbien io
Ġten ÃŃa
com un
Ġres identes
Ġsiste mÃ¡
Ġinstitu cional
Ġreem bol
Ġf es
Ġal tura
Ġ201 6
Ġcul tura
Ġenmi endas
Ġsol amente
Ġun animidad
s i
ĠAC UER
ĠNo ta
Ġtransi ciÃ³n
Ġcomb in
Ġrefer ida
t ent
Ġinfraestruc turas
cil iaciÃ³n
Ġab and
Ġabor dar
ĠAr t
iz adas
Ġhid ro
olÃ³g icas
Ġrecon ocer
Ġre tenciÃ³n
ĠD ado
Ġsatis fec
Ġrespec tivas
l or
Ġprim a
ĠN orte
in ter
Ġquin ce
ĠN or
P EC
Ġpriv ados
ĠConstitu cional
Ġsan itarios
Ġci tados
Ġhuman a
Ġintro duci
bur go
ĠS R
Ġplan ta
rendiza je
Ġdin ero
Ġsimil ar
Ġexclus iva
ĠLE Y
ĠDic ha
a j
Ġas c
ĠTi po
Ġaplic arse
Ġplan os
Ġdesign aciÃ³n
Ġabier ta
Ġformul aciÃ³n
Ġplan eamiento
ĠIn d
Ġma tr
titu ciÃ³n
Ġab ono
Ġh og
ĠGin ebra
tal ia
Ġinter medi
Ġesta tales
Ġempres arios
Ġrespon der
Ġpre mi
Ġs iguen
Ġpres tados
con om
E G
P ro
Ġestruc turas
Ġescol ar
ĠCon go
err as
Ġparti das
Ġdes cu
Ġmercan til
Î ½
os os
ĠReg ional
ĠUn idad
Ġfundam ento
ĠSub s
uc ÃŃa
Ġcar gos
le o
Ġjuris pru
Ġ7 3
Ġcorrec ta
Ġsal ariales
Ġcar ne
ha bla
B IER
ĠL iber
Ġsal va
Ġ198 7
ĠAn dal
Ġinf antil
ent aria
ĠD atos
id ro
Ġindic an
ugos la
Ġval idez
Ġd uda
ue ga
Ġtr Ã¡n
Ġoportun o
Ġmode los
b aciÃ³n
Ġ3 00
qui lo
ĠE J
on al
Ġcuar ta
Ġc Ã³mo
Ġ198 6
ĠE valuaciÃ³n
ĠCo ordinaciÃ³n
Ġ9 5
ĠprÃ©s tamos
Ġdon antes
Ġsustitu ciÃ³n
Ġre tras
Ġdismin uciÃ³n
D e
Ġtras pas
Ġna v
ĠA po
Ġcomun itarias
Ġdesplaz amiento
ĠBenefici ario
M OS
Ġl ongitud
Ġesc uelas
Ġfirm ado
ĠPl eno
Ġfinal izaciÃ³n
ecomun icaciones
ĠPre par
Ġcier re
Ãº a
t Ã©
t y
ĠRe un
i eg
iz as
Ġaprovech amiento
ĠP ero
ti dos
Ġdirec to
ĠtrÃ¡n sito
s k
ĠB os
Ġha bl
ĠESTA BLE
Ġlegis l
Ġorigin al
ĠDE R
Ġve lo
Ġin tel
Ġocas ion
Ġve ter
Ġimp uta
br icaciÃ³n
Z A
Ġen fr
Ġpres ta
Ġexig encias
ĠaÃ± ade
Ġextin ciÃ³n
CI EN
CI O
Ġafec ta
Ã³g ica
om as
P AR
Ġcons tru
Ġfrecu encia
Ġinclu yendo
Ġsuje ciÃ³n
Ġv ÃŃas
Ġmic ro
Ġme todo
ĠCom pe
Ġaten diendo
ĠPes ca
t ador
Ġgas es
Ġinvestig aciones
Ġrefor zar
ID AS
Ġcorrespon dan
R e
pl a
Ġsigui endo
Ġ6 3
199 3
Ġha ciendo
fer aciÃ³n
Ġpla zas
Ġcla ve
ĠPER SON
Ġp edi
Ġconsent imiento
Ġcontra c
fr as
ĠPu bl
ĠA p
ĠCon cepto
ĠPres identa
Ã©n dice
Ġdes car
n ia
Ġmec Ã¡n
ĠB ur
Ġads cri
TIC A
Ġindi sp
Ġaprob ar
Ġpro li
ĠCOMUN IDADES
ĠÂ º
ĠC ul
Ġde pos
Ġd rogas
u do
U D
Ġp ensiÃ³n
Ãº lti
Ġvis it
es en
Ġpobl aciones
or cio
Ġurban ÃŃstica
em ente
ĠelÃ©ctr ica
Ġpl ur
i ar
Ġ6 4
Ġmit ad
Ġdifer ente
Ġtrans miti
ĠE MP
Ġpublic ado
Ġsuper ar
Ġcomunic ar
ÃŃcul a
ĠperiÃ³ dic
ĠCan arias
gan istÃ¡n
Ġdesem ple
ap Ã³n
ĠC orpor
ĠagrÃŃcol a
Ġaux iliares
Ġdefin e
Ġcontempl adas
Ġconsidera ciones
Ġaplic aciones
ĠL ÃŃ
ĠIn specciÃ³n
pec to
Ġdisposi tivos
ĠOrden aciÃ³n
Ġopin iones
que o
Ġconc urso
ĠDe fin
Ġexce da
Ġconta bilidad
Ġaquel la
es te
Ġc ese
ĠOper aciones
Ġambi entales
ĠB el
ĠP ES
Ġaprob adas
Ġab og
ĠIN D
Ġw eb
Ġpala bras
Ġdes trucciÃ³n
ĠComis ionado
is toria
il l
ĠmÃŃn imos
Ġdoc ente
ĠC ri
r os
Ġque dan
Ġconst ante
Ġemiti do
rden es
IC AS
Ġintro ducciÃ³n
ĠF er
Ġproduc e
ĠDER ECH
Ġsimul tÃ¡n
Ġocu pa
ĠMINISTR O
Ġpidi Ã³
o d
Ġte j
Ġrelig ios
âĢ Ĥ
ĠS ur
Ġ7 7
E A
Ġimplan taciÃ³n
tu almente
i era
Ġform al
Ġconcedi da
om in
Ġad qui
Ġrealiz an
ur rir
Ġejerci cios
i an
ĠI T
Ġcorrespon den
Ġpo dido
Ġan un
Ġres tantes
Ġproli feraciÃ³n
ĠP on
ĠPo pular
Ġrestric ciones
Ġdi seÃ±
ier on
Ġa ero
Ġpos esiÃ³n
res tre
tor as
ific aciones
Ġvolun taria
Ġtal ler
graf ÃŃa
Ġactu alidad
ĠS us
Â «
ist entes
ac h
TR OS
ĠA B
Ġr u
r era
a u
Ġtrabaj ar
Ġacces or
ĠseÃ±al Ã³
Ġfarma cÃ©u
Ġban c
ĠCON VEN
Ġcu adr
Ġconcurr encia
ector es
Ġsol uciones
Ġdisc re
Ġintegr ada
Ġsignific a
Ġleg ÃŃti
Ġin cis
Ġ9 3
tr ados
Ġc ru
TIV OS
ĠG O
Ġexig idos
a bilidad
Ġper misos
âĢ Ļ
Ġcumpl en
Ġcon tes
ĠM AN
im Ã¡tico
ĠV icepres
Ġabon arÃ¡
ĠEs tra
Ġdeb ÃŃa
Ġaudi torÃŃa
Ġreconoci do
CL U
ĠESPA Ãĳ
ĠY ugosla
ĠCan adÃ¡
ĠSan idad
en az
Ġfortal ecimiento
ĠAf ganistÃ¡n
Ġa un
Ġcolum na
ac es
Ġpo co
ĠEs c
Ġur gencia
Ġh igi
Ġintegr idad
Ġ Ð
ĠReg lam
ĠP ide
gr u
Ġregul ado
Ġpala bra
Ġrefer ente
ĠTerc ero
Ġti p
Ġconstitu ir
Ã §
Ġlle va
Ġhabr ÃŃa
Ġor gÃ¡nica
ĠEst ad
f ra
MB RE
in am
ĠEjecu tivo
igr antes
Ġpon e
Ġam ena
ĠMar co
Ġas ilo
Ġdistin ta
ĠV AL
ĠPo der
v os
Ġacum ul
Ġalco h
ĠnÃºm eros
Ġofrec er
Ġpres idente
Ġresul tante
Ġad misi
198 5
Ġcandida tos
b es
Ġs ir
ĠV i
i ero
f on
ta tivas
ĠDe ber
UL AR
Ġplan tas
me tro
Ġc ent
ari z
Ġde biendo
con tin
Ġcal le
Ġindic ados
ĠO tras
Ġin ex
Ġminu tos
Ġdo ce
ĠPRO P
Ġfun d
ud aciÃ³n
tion s
Ġm ensa
Ġtex tos
Ġconex iÃ³n
ĠDic ho
Ġde partamentos
V A
Ġinclu irÃ¡
Ġf echas
Ġpr orro
Ġma trimonio
Ġproh ib
ĠmÃ© dicos
Ġdecidi Ã³
Ġnombr amiento
Ġformul adas
Ġexce dencia
k e
. )
C om
Ġcelebr ado
ien en
an da
Ġmovil idad
IZ ACION
Ġre vo
tÃŃ a
qu it
Ġmunicip ales
ĠEx per
Ġseman as
Ġhon or
ib rio
ĠInter net
ĠCAS O
C P
en der
Ġfij aciÃ³n
Ġdes g
Ġm g
ĠDE CRE
Ġf res
Ġcon ferencias
ad uc
Ġdispon ibilidad
iten ci
Ġpro cur
ĠSU B
ĠSubdirec ciÃ³n
Ġnacional idad
ĠIn dia
Ġaf irm
Ġal quil
Ġ-------------------------------- ----------------
ĠBa jos
ier e
Ï ģ
ĠN ombre
Ġde ri
Ġde pendencia
ac ciones
ĠaÃ© reo
ter rÃ¡n
Ġarm ados
Ġinmedia to
un ciÃ³n
Ġpromo v
Ġin vo
Ġran go
ĠelectrÃ³n icos
ÃŃfic o
Ġintro ducir
Ġobserv a
Ġma qu
ÃŃ r
Ġinc endi
Ġcuesti on
Ġdifer enci
Ġ201 7
ti das
Ġden eg
tocol os
A l
ol v
Ġdi plom
ent ados
Ġvincul antes
Ġimp edir
ĠdesempeÃ± ar
Ġcon tro
ĠDisp osiciones
Ġs Ã©pti
ĠÃŃn dole
Ġconsider ando
Ġtempera tura
Ġtar ea
Ġencu entr
ĠEXC MO
Ġcolec tiva
Ġacon te
ĠRE P
ĠA rag
Ġb us
ĠGuar dia
e tario
Ġindisp ensa
Ġci tadas
ad ura
econ Ã³m
TI FIC
Ġresul ten
er ic
Ġtur no
Ġno tificado
ĠF I
Ġacci dentes
i x
ĠAlim entaciÃ³n
Ġaprob ados
ĠDIC H
Ġreestruc turaciÃ³n
Ġhuman itaria
Ġdesarrol la
ĠTo das
Ġl ici
ĠCor ea
ĠE cu
ĠT r
ĠS AN
ĠT EN
ĠC ADA
Ġefic aces
Ġmov imiento
Ġpro l
Ġsu st
ĠManten imiento
Ġprovin cia
ĠPRO DUC
Ġhubi ese
Ġfij ar
ĠCondi ciones
min a
quisi tos
ĠS IN
Ġtotal mente
Ġconten ida
ĠF ORM
es ta
Ġacredi taciÃ³n
Ġimpl ic
un o
Ġrur al
ĠG e
Ġan orm
Ġespecial izados
Ġenmi enda
rÃ¡fic o
um o
b ado
Ġcontamin aciÃ³n
Ġcapaci dades
ĠPortu gal
Ġfi jo
ĠRec ord
Ġfu ente
Ġcompon ente
ĠY ork
Ġim poner
Ġimp uls
Ġactual izaciÃ³n
Ġcl ÃŃn
Ġinconstitu cionalidad
Ã© tico
Ġsepar aciÃ³n
EC U
Ġconta ble
ĠH asta
Ġpa tr
Ġresul tar
m es
ĠMunicip io
Ġcontra tista
ĠACUER DO
it ado
] ,
Ġd an
Ġconcre tos
ĠDECRE TO
Ġpudi endo
ĠV E
Ġefectu ado
ĠCE E
ĠEs truc
ES ION
ĠAs istencia
Ġdeclar ado
ju ici
ĠTur ismo
Ġm as
Ġhacer lo
Ġexpor taciones
ĠE labor
Ġ6 6
ĠAndal ucÃŃa
Ġafec ten
ÃŃ do
E T
ĠLo cal
Ã³m e
Ġci fras
ĠIns trucciÃ³n
Ġprim aria
Ġplante a
Ġcumpl ido
Ġrecog e
z an
Ġtra tado
Ġprop Ã³sito
Ġden unci
Ġdeb ida
Ġurban izaciÃ³n
ĠComun icaciÃ³n
ĠOfici ales
ÃŃ z
Ġinform arÃ¡
Ġpresent ados
mbi to
di os
Ã³g ico
Ġre Ãºn
Ġco e
Ġdistin to
de dor
Ġjurispru dencia
Ġaplic ado
Ġcomun ico
Ġpr Ã³r
Ġvelo cidad
ĠI talia
ĠB oletÃŃn
Ġcumpl e
ĠS ue
Ġcol oc
Ġestim aciÃ³n
ĠN eg
y s
Ġsustan cial
Ġliber tades
Ġactu ar
Ġcondi cion
gen es
ĠJ apÃ³n
Ġtrans fer
Ġ15 0
Ġde terior
ĠP ari
ca paci
ĠD ar
Ġpro puesto
ras il
Ġprove edores
Ġmon taje
ĠEjecu tiva
Ġap rendizaje
Ġdispon ga
Ġamena za
ĠprÃ³x imo
ĠFuer zas
Ġejecu tar
Ġestablecer Ã¡
ĠTur quÃŃa
Ġparticular mente
e jo
Ġpo tencial
Ġcr ÃŃ
Ġpropi etarios
c tos
Ġha cen
ĠÃ³ rdenes
Ġbas ada
fi quen
ens os
Ġapor tar
Ġs en
i ra
ĠAux iliar
ien es
Ġexplo taciones
pi Ã©
Ġjue go
Ġ9 8
Ġim per
Ġeta pa
Ġsex o
I MEN
Ġs Ã³l
un es
ĠEX P
Ġre ten
ĠCOMI SION
Ġ9 4
Ġm unicipios
ul g
ĠO FICI
ĠRec on
ta t
Ġres idente
Ġampli ar
Ġfacul tad
ĠUNI CEF
Ġprodu zcan
tin g
ban o
C RI
Ġes p
ĠÃĵ rgan
ĠF am
t adores
Ġco tizaciÃ³n
Ġindic ar
Ġaliment aria
x ico
Ġdes as
Ġoper adores
Ġest ados
ĠRe d
Ġesta mos
a t
Ġha gan
Ġ198 5
Ġh ici
ic ul
Ġdem ues
Ġ8 7
Ġobserv aciÃ³n
ĠO MITI
- ,
ĠCri terios
Ġexp ro
en os
Ã© ticos
Ġdesign ados
ues ta
CI P
Ġconci er
Ġaz Ãº
ĠI l
Ġleg i
Ġres pal
ĠH o
Ġindependi entemente
ĠG o
ĠFor o
ĠSeg unda
MP L
Ġvers iÃ³n
Ġles iÃ³n
Ġreg ÃŃmenes
ir mar
Ġsol a
Ġindependi entes
Ġbi o
ĠJ UN
ĠN A
Ġcomba tir
Ġin co
ĠÃº til
Ġdoc entes
Ġm Ãºlti
car b
quit ec
ĠDi pu
C u
ĠmÃ©ri to
ĠReal izar
Ġtari fas
Ġunivers al
Ġordin aria
Ġo l
Ġca u
Ġdepor tivas
Ġcompro bar
Ġqued ado
Ġrur ales
ĠSERVICI OS
Ġsec ciones
Ġpresent arÃ¡
tra je
ĠSu iza
pi de
Ġpo ten
ON A
Ġpresent arse
Ã³di gos
Ġag ente
oso tros
ĠEUROPE AS
Ġex ces
Ġcuales quiera
Ġpresupues tario
Ġdese a
ĠDeleg aciÃ³n
ĠTo tal
und aciÃ³n
Ġpo tencia
Ġdestina tario
Ġexig ir
Ġpropor cional
ĠRes pecto
ĠCu entas
Ġtrans ferencias
Ġreconoci da
ci mo
Ġam enaz
Ġde roga
Ġcu yas
Ġsalva guar
ta mo
Ġin spec
Ġconclu ir
it an
Ġfor zos
Ġconten gan
as te
Ġten emos
Ġterror istas
Ġsometi dos
Ġti erras
Ġfac tor
Ġfin ca
Ġnorm ativo
i enta
ĠCON TRA
ĠVal l
ĠENTR E
ĠNa var
Ġeurope os
ĠMer cado
Ġle van
Ġabsol u
Ġf ra
Ġcelebr ar
Ġequival entes
ĠÃ¡ cido
ĠAuton omÃŃa
Ġacord ado
Ġaproxim adamente
ĠfÃ³rm ula
ĠFa bricaciÃ³n
Ġpresupues tarias
Ġocu par
gram a
X I
Ġautoriz a
Ġdel incu
% .
Ġesta ban
am ento
Ġinform ado
Ġelabor ado
Ġdefec to
Ġexpl os
ĠN UM
ti g
ta vo
Ġop osiciÃ³n
Ġâ Ī
Ġconcentr aciÃ³n
ĠCu adro
II I
ĠSU PER
ĠT esor
Ġmunicip io
Ġcomplement aria
Ġper cepciÃ³n
Ġconcre ta
Ġar tÃŃs
ĠEl lo
Ġencuentr en
ĠRecord ando
Ġvel ar
Ġ6 8
ĠEj ecuciÃ³n
Ġadecu aciÃ³n
Ġagr icultura
Ġent ra
Ġsuces ivo
ĠConsul tiva
ing Ã¼
iv e
Ġcom itÃ©
Ġdirig idas
ĠG ir
Ġ( "
ĠF A
Ġocas iones
Ġclar a
Ġesfuer zo
Ã³s tico
ĠmÃŃn imas
ler ancia
Ġcons ecuciÃ³n
ĠDe be
ĠC re
in ca
Ġvia je
as o
z ados
Ġf ues
ĠO M
in ea
Ġra cional
Ġdeclar a
ĠEn seÃ±
ĠRe quisitos
Ġprogres o
Ġca b
Ġcu idado
Ġcontinu a
h an
Ġterritor iales
Ġpode res
Ġal oj
ACION AL
Ġrespe tar
Ġem b
Ġgeo grÃ¡fica
ĠMIN IS
c Ã³
a gen
Ġcor to
ĠObje to
u t
ĠLe Ã³n
Ġbas ado
ĠmÃ© dica
ues ti
Ġas es
teri ales
bernam ental
ĠPari taria
pro yecto
ĠIs las
ĠP al
a za
ĠTRA BA
Ġf usiÃ³n
Ġoportun as
Ġse min
Ġtener se
Ġe col
Ã© tr
Ġv ÃŃn
Ġque dar
s u
Ġma gn
ĠÃ© tn
Ġreal mente
ĠMedi ante
Ġprepar ar
Ġvac antes
oso vo
Ġis rael
Ġconse jero
Ġenc omend
on e
ĠRes ul
Ġdi o
/ /
Ġpres cripciÃ³n
Ġsolici tantes
ĠArag Ã³n
ĠcompaÃ± ÃŃa
p uer
ue los
Ġinci dencia
Ġvi ene
Ġexis tir
Ġanorm al
Ġadop tÃ³
r ump
ta b
AR IO
c ÃŃa
Ġdom Ã©s
âĢ¦ âĢ¦
Ġretir ada
Ġdefini tivamente
w e
Ġten or
s ta
Ġreglam entos
ones ia
Ġdi e
Ġautoriz ar
ONO MI
Ġins trucciÃ³n
Ġres taur
Ġ8 9
ĠO C
Ġf en
Ġreno vaciÃ³n
com o
Ġcentr ales
ĠSo bre
ĠespecÃŃfic amente
ĠP os
al dad
Ãº r
Ġusu ario
ĠF R
Ġobje tos
Ġes o
Ġreci ente
ĠC iencia
ĠSue cia
Ġdecidi r
Ġ1 01
Ġlec he
Ġ quisi
ĠK osovo
Ġrecib idas
ĠSud Ã¡n
Ġcos tos
ar e
ĠCa tegor
ta tivos
Ġb on
Z O
Ġim agen
Ġcorrec ciÃ³n
ĠB i
ĠReun iÃ³n
Ġci fra
Ġextre mo
V ER
E M
Ġencon tr
in clu
ĠJ ue
ĠAh ora
Ġab ar
ĠÃģ mbito
Ġmejor as
ĠmÃ³d ulo
ĠP D
ĠmÃ³d ulos
Ġmad re
ĠSub com
Ġconting entes
Ġir reg
ĠT im
Ġev idente
ĠHa y
Ġlim itaciÃ³n
Ġalma c
les c
Ġedific aciones
Ġerr ad
199 1
c ada
ĠG re
Ġr adi
Ġcon viene
ĠhÃ¡ bil
Î µ
ĠTÃ©cn icas
ar d
Ġdic tar
Ġfich ero
Ġquin to
tt p
Ġde r
Ġme t
Ġp tas
u wa
Ġdemoc racia
Ġh ospital
Ġperteneci entes
Ġest ando
Ġdic tado
to m
Ġafec tar
ĠM ol
Ġ7 1
Ġcre ado
IC OS
Ġsens i
Ġre mitir
Ġautoriz adas
vi ta
Ġtu vier
Ġcombusti ble
is o
C TAD
Ġre pe
it es
Ġincis o
Ġe uro
ĠDe pendencia
ĠseÃ±al ados
ĠCOMI SIÃĵN
Ġequ il
Ġsan itario
Ġdivers idad
ĠOrgan ismos
Ġ quier
Ġacuer da
ĠAn Ã¡lisis
ig a
ĠEmpres as
Ġm inas
em ent
Ġp al
Ġ6 9
Ġm ando
or gan
Ð °
Ġf ases
Ġacord Ã³
Ġan alizar
Ġsometi da
Ġimpl ica
Ġquin cu
ĠNor uega
lan d
or ado
ĠS L
198 8
Ġpa gar
Ġfalle cimiento
U U
I OR
j unto
Ġcumpl a
TI DAD
ĠL IS
Ġaspec to
Ġpon der
Ġfores tales
ĠC ir
: //
Ġde ud
Ġla n
AR IOS
Ġv uelo
Ġprecis a
vis o
Ġcorri entes
Ġinno vaciÃ³n
Ġcas i
t Ã¡ndose
ĠEE E
ez can
Ġb ec
ĠS el
Ġsindic al
Ġpeque Ã±os
Ġan ualmente
ĠV iv
F A
Ġabier to
Ġadop ten
ĠAc ta
Ġdefini tivo
ĠP alestin
ĠRE F
ĠD os
Ġprev Ã©n
Ġmej ores
ĠCor respon
ĠCual quier
Ġaudi o
Ġper fil
ĠON U
bre g
ĠclÃ¡us ula
ĠAU T
cl as
Ġver da
Ġfij ados
G U
l im
il aciÃ³n
Ġent es
Ġdi agn
Ã³n ica
Ġlabor atorio
Ġre posiciÃ³n
s os
ĠCrÃ©di tos
ĠÃŃn dice
Ġa tra
Ġar tes
Ġllev arÃ¡
ce laciÃ³n
I TULO
Ġmedi aciÃ³n
Ġneces ariamente
Ġcontinu ar
Ġlegi tim
Ġsuficiente mente
Ġid Ã©n
ĠprÃ©s tamo
d ado
I ENTE
ĠAl gun
ĠS ec
Ġ7 6
Ġbienes tar
ĠD on
Ġs eno
Ġac a
ĠAudi encia
vi aciÃ³n
ĠRes pon
Ġh inca
Ġhi po
Ġedifici o
ĠR A
as co
ĠAr m
Ġ9 6
Ġtrasl ad
Ġdo taciÃ³n
den a
Ġf ren
ĠM EN
Ġhinca piÃ©
Ġex pon
Ġvincul adas
ĠâĪ Ĵ
Ġmaqu inaria
Ġquincu agÃ©simo
Ġcumpl im
ĠEl ec
Ġbru to
Ġjus ti
pl az
Ġmar ca
ĠPromo ciÃ³n
ĠS AL
Ġdestin ada
Ġ6 7
c alidad
ti stas
G EN
j us
Ġsegu ido
Ġposterior idad
Ġhuman itario
Ġcar gas
par tida
ĠU til
BL ES
ĠN C
ĠfÃ¡ cil
ent almente
Ġpresent en
Ġofer tas
Ġb ene
Ġreconoci dos
ĠVig il
fin anci
Ġsatisfac er
ĠCon ven
ta Ã±a
Ġcontempl ado
ĠP LAN
4 00
Ġcontribuy entes
ĠNavar ra
os ten
Ġpar lam
Ġreduci do
Ġefec tivos
vent ud
Ġcompor tamiento
qu ÃŃ
ĠautÃ³nom os
Ġacredi tado
Ġotorg amiento
e os
Ġal zada
bl io
Ġtrans mi
ĠV d
Ġe conom
l en
B R
Ġman o
Ġremun eraciÃ³n
fec ciÃ³n
ĠTRL IS
Ġje fe
ĠF ORMA
ĠEx amen
un ya
Ġcometi do
ĠfÃ¡ brica
Ġn ada
ĠGO BIER
Ġautoriz ada
ĠApo yo
Ġnues tras
Ġoper ador
V I
Ġdesemple o
Ġposi tivo
Ġefectu arse
Ġcompar aciÃ³n
d ÃŃan
00 1
bili ario
ĠCORRESPON DI
Ġgener aciÃ³n
Ġaju stan
i ro
ĠZ ona
Ġsufr idos
Ġurg ente
Ġinter puesto
un g
Ġcontra tante
ĠSol ici
Ã ²
ĠGu inea
198 7
Ġtabl as
Ġco br
ĠCuar to
Ġ12 0
Ġcor re
b ulo
inam arca
Ġres puestas
Ġregul adoras
Ġpregun ta
Ġorigin arios
Ġnue ve
es tral
Ġrealiz ando
Ġafec tan
ĠSeg u
Ġmes a
Ġrequer ida
Ġres id
Ġdej ar
ĠÃŃn tegr
Ġdeleg ados
Ġex entas
ĠC Ã¡mara
ĠB ale
ĠInter venciÃ³n
Ġinici ar
Ġen unci
ĠA t
ier ÃŃa
ĠSer Ã¡
ĠobstÃ¡ culos
ĠCatal unya
Ġequil ibrio
Ġparce la
Ġquisi era
Ġaplic an
c tur
Ġlog ro
ĠcÃ³nyug e
Ġinter gu
Ġex ceso
3 00
Ġincorpor ar
cri bir
Ġfinanci ar
trÃ³ leo
ĠEn car
Ġdesg los
Ġjustific ar
ĠPro pi
ĠT E
Ġcomprendi dos
Ġpor tu
Ġtor tura
Ġexis ti
ĠT om
un ca
ĠVal enci
it y
il e
Ġacep tar
gres o
Ġc Ã³digos
Ġpo dÃŃa
ĠIgu almente
fa v
ĠazÃº car
Ġperman entes
Ġcos a
a je
Ġdestina tarios
Ġprevent iva
ez ca
Ġdemoc rÃ¡
IEN TES
Ġmedi ciÃ³n
Ġver ific
Ġofrec e
Ġsu breg
Ġra tificaciÃ³n
198 4
N o
ĠG ra
Ġen la
G RA
Ġcam ino
ĠC RE
Ġpol ici
Ġprofes iÃ³n
ĠtrÃ¡ mites
Ġreg res
Ġdi vi
Ġsolici tada
Ġcons enso
ĠautÃ³nom a
Ġ9 7
Ġcl imÃ¡tico
ĠGir ona
Ġin tra
ra bes
a tion
Ġpo bres
in s
Ġse mil
Ġcomien zo
Ġn osotros
Ġdesign ado
Ġexis tencias
ĠS ierra
c ran
P or
idad os
ĠCON F
er ar
Ġintegr al
D i
Ġso ber
ĠIV A
Ġpalestin o
ent en
ĠF omento
grÃ¡fic as
ec tual
Ġta ma
iv encia
g ular
ĠT ÃįTULO
Ġconduc to
V O
Ġd umping
ĠautonÃ³m ica
Ġadu ana
ĠT A
Ġp ens
tro cin
uer da
Ġp edir
Ġsustitu ido
Ġprecep tivo
O M
Ġhigi ene
Ġc ur
Ġcontrol ar
ĠINF ORM
Ġidi omas
Ġ( Â«
Ġpre tensiÃ³n
Ġhabi tantes
Ġestatu to
ci entos
ĠIn stal
ig o
AR R
198 9
ĠEconÃ³m icos
Ġpar ecer
Ġco bro
CI ALES
Ġma dera
Ġ8 1
rÃ¡ c
i ciones
Ġ8 8
i i
ic al
ĠquÃŃm icos
Ġha bilit
Ġno ve
cus iones
ĠL es
ĠB rasil
ĠF J
Ġespecial idad
am o
Ġan o
Ġsus crito
Ġposi tiva
ĠCu ba
Ġreglament arias
Ġsal do
cran ia
Ï Ĥ
ĠL le
ter ÃŃa
Ġ13 9
Ġexpres ado
Ġpa ciente
Ġres tr
ĠI rÃ¡n
ĠA par
Ġsim ple
ĠTar rag
ĠC alidad
x em
Ġtradi cionales
ĠT ari
ĠFUN CION
titu des
Ã¡m bulo
Ġcon tienen
Ġv uel
Ġentender se
Ġformul a
Ġa pel
Ã¡ cito
Ġconstitu ida
EC ES
Ġb e
Ġencuent re
Ġ7 9
Ġcier tas
ĠV IG
ĠP UE
Ġ7 4
Ġv isto
Ġex tensiÃ³n
Ġdes fav
Ġalcan zado
RO B
ĠC AN
Ġev ac
Ġdetermin en
Ġindemn izaciones
Ġb rin
ĠFin almente
tab ria
Ġperman encia
ĠDISPOSI CIONES
ĠCh i
Ã¡ frica
ĠmÃ¡x imos
Ġevalu aciones
tu alidad
b ados
Ġform an
ĠEstra teg
ĠB re
Ġsuscepti bles
ÃŃ tulos
Ġmet Ã¡l
Ġatribu ye
z Ã³
Ġcu anti
Ġpen ales
* *
ĠAustr ia
Ġca t
Ġta bla
Ġreform as
Ġpode mos
Ġutiliz a
om e
Ġde ducir
Ġadop tada
Ġinfer iores
Ġestudi antes
graf e
Ġencon trar
Ġdeba tes
Ã± ana
Ġjustific ada
ĠD inamarca
Ï ĥ
Ġcontro vers
Ġsegu irÃ¡
Ġii i
Ġperson alidad
Ġtar de
IV ER
Ġutiliz an
ĠC ro
TI ON
ĠFor al
Ġindispensa ble
Ġdefin idos
Ġm Ã³vil
Ġirreg ular
ĠIs l
Ġelector al
ĠIden tificar
Ġcomunic arÃ¡
ĠQue da
ĠP LA
c rim
d ores
Ġconsider en
ĠGr ado
ĠEn trada
ĠAr g
ĠAn ti
f or
Ġidentific ar
Ġpr or
DIGITO Âº
Ġpl Ã¡s
TER IO
ĠP OL
ĠPAR TE
c k
ĠDes cripciÃ³n
Ġas im
Ġcier tos
Ġre cip
Ġad misiÃ³n
Ġderiv ada
UL OS
ĠSub venciÃ³n
ĠIn c
fici encias
Ġcontra pres
Ġproduc tor
Ġaerona ves
ĠGOBIER NO
Ġcomp ensa
Ġrefer idos
Ġaduan ero
ĠC ari
ĠTen iendo
L ACION
TU D
ĠB al
Ġsepar ado
Ġformul Ã³
ĠIn ici
Ġac el
re di
Ġestableci Ã³
ĠIden tificaciÃ³n
am entos
pÃŃ grafe
Ġg anader
ĠF al
Ġinici almente
Ġhab ida
Ġutil icen
ĠConse jero
Ġadquisi ciones
ĠESTABLE CI
Ġrepro duc
Ġproducir se
Ġo br
Ġavan ces
Ġres umen
ĠA z
Ġpotes tad
ĠGas tos
Ġexig encia
Ġac ab
ĠJ U
Ġvulnera bles
pl Ã¡cito
ier nes
ĠS ch
Ġbene plÃ¡cito
Ġesti mar
Ġurban o
ĠOri ente
Ġlimit ada
idar idad
Ġ8 6
l in
pi as
Ġen com
j an
Ġfron teras
Ġexcep cionales
Ġman tiene
198 0
ĠA co
par a
ĠF undaciÃ³n
ĠSe de
ĠTarrag ona
Ġexpro pi
Ġexcep ciones
Ġprodu jo
ĠO S
ĠCan tabria
undi ales
Ġsur g
fron ter
ĠB ol
Ã©l gica
Ġ ________________
ĠM Ã³d
ĠNUM ERO
ĠS en
ĠperiÃ³ dico
Ġle ves
ĠV e
ĠPalestin a
Ġsu presiÃ³n
Ġsig a
Ġse m
n i
ĠCons orcio
ĠQ U
ĠBos nia
Ġbal ance
A CIÃĵN
Ġinform Ã¡ticos
ĠEstad ÃŃstica
Ġconstitu ido
uc h
Ġconf idencial
Ġform ar
ĠR uman
Ġdefin ido
Ġven cimiento
Ġefectu ada
ent ina
Ġinv al
TER MIN
Ġreper cusiones
Ġminor ÃŃas
ĠRespon sa
ĠU crania
ĠME D
Ġmone da
Ġsuel do
Ġpermi ten
Ġf el
ĠS om
Ã ´
Ġpa g
Ġinter venciones
Ġinmue ble
Ġferro vi
Ġsi tio
ĠMÃ© xico
Ġprom ul
Ġn orte
Ġreci entemente
ĠFam il
Ġb om
Ġcar rera
ĠLÃŃ bano
Ġpartici pa
Ġhubier e
p r
Ġacredi tar
Ġlib res
ĠPrim er
Ġcelebr Ã³
Ġins ta
Ġprepar ado
ĠEstu dios
ĠÃ¡ r
Ġtr o
un cias
Ġcuan tas
Ġado lesc
ĠprÃ³r roga
Ġinf ancia
Ġ Ã¡n
ĠI SO
Ġcom puesto
Ġvincul ados
ig ra
Ġdi pu
ĠÃ ī
Ġprovis ionales
Ġforma to
Ġcer e
blec er
ĠC ER
Ġli bros
ĠPol onia
Ġincrem ent
ĠAustr alia
Ġsuministr os
an es
Ġsal arios
Ġencar gados
Ġaudio vis
C R
Ġpres ten
Ġcul tivo
Ġpla ta
ĠDocum entaciÃ³n
Ġautor es
ĠVal ores
Ġto tales
ĠN e
Ġn unca
ĠConsul tivo
Ġprev er
Ġrestr ing
Ġdenomin ado
ĠÃģ rabe
ĠGal icia
Ġinstr u
Ġno ctur
IB U
- (
Ã©r cito
ĠNa tural
Ġbas a
Ġre ac
Ġcu Ã¡l
ĠOMITI DA
Ġtama Ã±o
OL U
V ES
Ġop ciones
Ġcor r
Ġim puestas
Ġbor do
pl es
Ġinstruc tor
ĠprÃ¡c tico
J A
TR UC
Ġe je
ĠUN CTAD
Ġalum no
Ġasign ado
Ġexce der
ien a
Ġerr ores
ĠSEG UR
6 00
Ġtur nos
Ġregul adas
% ,
Ġin sp
ÃŃ amos
Ġtrim estre
Ġnav egaciÃ³n
Ġqui ero
ci da
ĠOc cidental
Ġabsol uta
Ġtribu tarias
ĠC uesti
ĠSEGUN DO
ĠB u
ĠautÃ³nom as
ĠcientÃŃfic a
ĠIn tegr
TIV AS
ĠCon ta
Ġtar je
Ġdependi entes
Ãº cl
ego vina
ĠComis ario
d on
ĠLle ida
em en
un idad
ga t
ĠAU TORI
Ġtrans fronter
ĠA fricana
Ġrec tificaciÃ³n
Ġc e
Ġaconte cimientos
ĠL im
Ġadquir ente
ĠC ARA
Ġproyec tada
ĠT it
c Ã©s
id aciones
Ġy o
ĠC AL
Ġ8 2
ĠMA TERI
ĠPRO CED
Ġindic ada
Ġrefer idas
gr ad
t Ã©n
ter o
Ãºs que
Ġsu ger
ĠCU AL
g ip
de o
Ġoc ur
Ġprev ias
Ġconsumid or
Ġprom ue
Ġdispon en
Ġdetall ada
Ġcometi dos
ĠFin landia
ulg aria
st ur
ĠV ic
ĠÃº tiles
Ġm undiales
is tir
Ġenv ÃŃo
to l
Ġus ted
Ġesti pul
ĠfÃŃs ico
OR ES
iz on
t Ã¡menes
ĠPD F
ĠDE TERMIN
Ġ7 8
Ġexpres ar
ĠEm baj
Ġdesta car
Ġtempor ales
Ġ10 7
Ġexport adores
Ġfac turas
ĠCONS ID
Ġcoher encia
z egovina
ific ada
Ġtele visiÃ³n
Ġdisfru tar
il es
ĠA Ã±o
Ġadquir idos
grÃ¡fic o
Ġlim ita
Ġproduc tividad
Ġmedioambi ental
201 6
Ġnom inal
Ġpalestin os
Ġurban ismo
Ġindic adas
ĠPAR TI
ĠI R
Ġtrans mitir
ĠI PC
Î ·
Ġsin dica
Ġestruc turales
et ales
Ġoblig ada
Ġsu plem
ĠCari be
ĠD OS
Ġcarb ono
lam iento
ĠG AS
cis mo
Ġprescri pciones
ĠCU ANDO
Ġadecu adamente
Ġrelacion ada
Ġas igna
ĠJos Ã©
Ġclas es
Ġevent ual
Ġresuel to
Ġinclu ya
Ġdes af
Ġformul ado
D AS
Ġadop te
Ġelev ado
Ġen juici
ĠS osten
Ġ8 3
Ġdesesti ma
uwa it
ĠMINIS TERIO
Ġin a
ĠM ur
Ġrecord ar
Ġresul tantes
ĠCar acter
ĠInd onesia
Ġpres erv
iza ble
Ġcor reg
ĠV ol
Ġde tecciÃ³n
ĠV il
Ġadqui rir
ĠNi Ã±o
Ġpar e
ĠM el
qu ia
Ġindic aciones
Ġtur ismo
Ġfin aliz
ĠFun dam
Ġsancion ador
A P
Ġno ven
ĠTerc era
Ġpro poner
Ġma tric
ĠB ienes
IR PF
Ġdeven go
i encias
ĠTÃ©cn icos
Ġestablecer se
Ġma g
ĠSubcom isiÃ³n
ĠT EC
Ġconcedi do
Ġpres tado
con tra
Ġatribu idas
R AS
f en
Ġdep Ã³sitos
Ġmatr ÃŃcula
Ġaf ili
Ġcontempl ada
Ġutiliz ada
Ġv id
Ġ2 20
Ġinform aciones
Ġen aj
ieg ue
Ġestrec ha
Ġ --
eci do
Ġefec tividad
Ġcontr ad
Ġpregun tas
Ġcon ec
ĠN ECES
TR IBU
Ġmens uales
Ġpe trÃ³leo
raf o
h t
ĠDe por
Ġnegoci os
Ġju z
Ġpromo tor
dr ÃŃa
Ġqu er
ĠL ocales
ĠDE F
Ġrequer imiento
Ġexcep cional
C TER
ww w
u dades
y l
Ġreper cu
Ġimp ul
ĠA SI
te la
Ãºsque da
Ġdepen dencias
Ġma Ã±ana
ce d
Ġinno v
ĠLu xem
teg ro
ĠChi pre
Ġprepar ados
ĠAy ud
Ġlec tura
Ġdi gn
Ġoportun a
Ġop tar
ĠB AS
Ġcir cu
teg ra
Ġadoptar Ã¡n
Ġtex tiles
Ġdetal le
ĠSubs ecre
Ġquin ta
Ġunivers idades
h am
Ġvol ver
Ġa spir
Ġarti cul
ĠN ORM
Ġasis tir
Ġmutu o
ĠilÃŃci to
Ġb ol
or den
ĠFon dos
Ġdiagn Ã³stico
Ġli ter
s to
E st
Ġre af
cin di
gru po
li qu
Ġsolici tÃ³
E D
Ġsu pl
Ġa ver
Ġsolici te
ĠB er
ĠCatal Ã¡n
Ġadap tar
Ġextraordin aria
Ġdefin ir
Ġvein te
Ġperci birÃ¡
ĠTER C
Ġsustitu ir
Ġfues e
Ġpropi etario
Ġtel em
Ġintercambi os
Ġes ca
ĠÃģ rea
p es
Ġre tro
ĠK uwait
ĠPa kistÃ¡n
Ġl unes
ĠPRES UP
Ġmulti laterales
Ġurban ÃŃsticas
C ES
Ġintegr an
ĠHer zegovina
Ġvo tos
il andia
Ġl uego
Ġpermiti rÃ¡
Ġcre o
ĠCor tes
C AN
Ġdese o
ĠM Ã¡
Ġinici ado
Ġobten ida
ĠB Ã©lgica
Ġagr icul
ĠIn tro
t enta
Ġs ecu
Ġ11 8
Ġnegoci o
Ġregul ados
Ġconduc tor
Ġca za
Ġbi laterales
Ġsecund aria
Ġpa ga
ĠCo ordin
Ġten siÃ³n
ĠIsl Ã¡mica
Ġpla za
ĠEstruc tura
Ġh ttp
Ġdu pl
ĠCOMUN IDAD
j ar
Ġfue go
ĠTo da
Ġapo ya
Ġdesp rende
TEN CIA
Ġrein tegr
ĠAn tes
u a
il las
Ġllam amiento
ĠCom pro
ĠTim or
Ġab aste
ol ver
Ġproce dencia
ĠEsc uela
TE G
Ġles iones
Ġsemil las
Ġlleg ado
Ġsos pec
Ġneces ita
ĠvÃŃcti ma
Ġci cl
ĠB ulgaria
Ġvincul ante
Ġall Ã¡
Ġfu turas
Ġexpedi do
Ġinclu irÃ¡n
Ġcoordin ar
Ġs ÃŃn
tor no
Ġsitu ados
Ġactiv amente
ĠTEC N
iste ma
br ado
Ġeurope as
e amente
c adas
Ġadop tarÃ¡
Ġmanifies ta
ĠSecre taria
Ġcan je
Ġcon gel
Ġde grad
yec tos
Ġse xto
Ġamor tizaciÃ³n
Ġbenefici aria
Ġor al
Ġpro visiÃ³n
Ġconta bles
Ġpre cisiÃ³n
Ġdeterior o
ariz aciÃ³n
Ġdesarroll ados
ĠG er
Ġm us
ĠM in
Ġgrav amen
ĠV iena
Ġsus ci
Ġpre Ã¡mbulo
ĠDE CI
ĠM ag
ĠEx tre
Ġalquil er
ce de
Ġinter ven
ĠF u
to dos
C ON
Ġincendi os
Ã³ tesis
o b
Â» :
Ġlimit ado
Ġexamin Ã³
Ġ198 4
Ġde cen
ĠDe ci
Ġim pre
Ġac o
ĠF e
Ġem is
Ġdefin idas
Ġmanda tos
Ġasumi r
Ġlegisl ador
rue cos
Ġsitu ado
Ġpac ÃŃfic
ĠP uer
paÃ± as
Ġg rÃ¡fic
ri tu
Ġ201 8
Ġeconom ÃŃas
en as
ĠCh eca
f ur
Ġllev ado
N UR
198 6
Ġexist an
ĠPRIM ERO
Ġpa trocin
ĠE fec
ĠEspa cio
ĠP as
ÃŃ da
Ġpon ente
Ġsan itarias
Ġac ero
p ulaciÃ³n
il lo
Y O
ĠCARA CTER
ĠFeder al
ĠCol om
ĠEC ONOMI
rÃ¡ ul
Ġcon l
ĠDocum entos
Ġmen ciÃ³n
Ġrecib ida
Ġvolun tario
Ġdim ensiÃ³n
k i
Ġescol ares
Ġv istas
Ġpres te
ĠMi xta
Ġpuer to
ĠC P
Ġhabi endo
Ġn Ãºcl
Ġhabr Ã¡n
ĠInter pre
ĠcientÃŃfic os
Ġaero puer
ĠES TADOS
Ġpresupues tarios
eg a
Ġplante ada
ĠOri ental
z arÃ¡
ĠJurÃŃdic a
k g
Ġ198 0
ĠEstrateg ia
Ġlim itar
Ġin jus
Ġacog ida
ĠQu in
or tes
Ġvia jes
Ġdign idad
c usiÃ³n
Ġurban ÃŃstico
Ġgo bern
Ġcorrec to
Ġrepresent an
Ġdim ensiones
ĠContra tos
Ġcorrec tamente
br al
Ġexter na
b ida
Ġcor reo
ĠPERSON AL
Ġcon ducciÃ³n
f t
Ġap Ã©ndice
ĠConten cioso
Ġrefer encias
Ġfin almente
Ġdeber es
ĠReg iÃ³n
ĠFacul tativo
Ġent ren
Ġcontrapres taciÃ³n
Ġa ves
Ġvisi ta
Ġin h
MEN TOS
ĠEnseÃ± anza
ĠI X
Ġde mas
Ġmater nidad
Ġtitul aciÃ³n
Ġreconoci das
ren der
Ġdi vis
ij a
Ġsuper e
ĠN E
Ġenerg Ã©tica
dic es
ÃŃo do
Ġpres tando
Ġsup ra
ĠCONSID ER
ĠD a
Ġ um
Ġfores tal
tur os
Ġ25 0
ĠB en
gua y
Ġad ver
ĠAP AR
ĠTransp orte
Ġretras o
ĠRecon oci
Ġcre di
Ġfi bras
Ġestruc tur
ĠV asco
Ġtribu tos
ĠM AS
Ġespecial idades
ĠVicepres idente
Ġestad ÃŃstica
r on
Ġcorrespon der
Ġrespe tando
R EN
Ġposi ciones
ac a
Ġsol u
ĠP Ãģ
Ġdes echos
Ġenaj en
ĠCOMP E
ĠADMINISTR ACION
ar s
Ġparticip an
v enta
Ġintel ectual
Ġestatu tos
Ġarbi tr
Ġca uc
ĠFun cionamiento
Ġe mitir
ĠYugosla via
Ġ0 2
u di
gan da
Ġden uncias
Ġmulti pl
C AL
Ġad her
Ġafec tada
gip to
ĠLe ona
Ġaloj amiento
Ġcaus ados
Ġdiscrim ina
Ġ(* )
ĠGre cia
Ġintegr ados
Ġnorm almente
Ġcontinu idad
Ġace ite
AR IA
Ġestablecer Ã¡n
Ġrev el
Ġblo que
Ġbec as
ĠON G
Ġve ci
ĠSud Ã¡frica
Ġdic ta
Ġcorrec ciones
ĠIndustr ial
Ġencamin adas
Ġdis capaci
Ġhor izon
ĠTecn ologÃŃa
Ġpro tocolo
Ġreembol so
Ġexp ir
cion ado
Ġpendi ente
Ġdemos trado
ĠCi encias
Ġv iernes
ĠPlan es
Ġde ficiencias
Ġdefin en
Ġin e
Ġpro v
S S
Ġo pon
c entr
ĠApro bar
Ġab uso
Ġcas ti
Ġ11 5
ier an
Ġcu antÃŃas
Ġdiv ul
Ġacon di
Ġ11 0
uls iÃ³n
Ġexper iencias
Ġcons istente
Ġex Ã¡menes
Ġacon se
Ġderiv ado
Ġca dena
Ġreclam antes
ĠB e
Ġalterna tivas
ĠOblig atoria
Ġ4 00
tr um
i Ã©ndose
Ġescri tura
Ġdeliber aciones
dera ciones
Ġgr ad
Ġprol ong
ĠH e
Ġrequier en
Ġa tribuciÃ³n
Ġrecog idos
Ġrepresenta tivos
Ġentr ar
Ġses enta
UES TOS
Ġdeman d
I TAR
Ġver ificar
Ġl istas
ili p
Ġadj un
ĠEqui po
ĠS ERA
Ġexport ador
ĠperiÃ³dic amente
Ġpro tocolos
ĠEncar gado
Ġac tas
ĠCons umo
Ġrepar to
Ġar ri
Ġinmo vil
Ġsen cil
per son
ĠDes p
blio tec
bl aciÃ³n
Ġconden a
Ġproh ÃŃ
ĠPac ÃŃfico
Ġ11 4
d umping
Ġreci entes
ĠEJ ER
8 00
Ġpre lim
Ġglo b
der os
ari ciÃ³n
ĠParti cip
ĠP rÃ¡c
ĠL an
ĠCONS TITU
d ro
B IL
ĠIm puestos
Ġva yan
ER OS
Ï Ģ
s in
ie ve
is trados
ĠMil itar
ĠmÃºlti ples
Ġtu viera
AD R
mi o
Ġtra tarse
ĠB Ã¡s
ĠViv ienda
Ġrealiz arÃ¡n
ĠH un
ĠCro acia
ĠS Ã³lo
Ġun d
tific aciones
ĠValenci ana
Ġ ~~
Ġ~~ ~
Ġcam paÃ±as
ĠestratÃ©g ico
Ġcompeti tividad
Ġar ro
Ġa gres
u til
ĠT rÃ¡fico
ĠInterna tional
ĠPRE VIS
Ġfel ici
Ġcan celaciÃ³n
Ġindic ando
ur al
Ġex tr
Ġacredi te
ĠSO CIAL
Ġinclus ive
Ġproduci dos
Ġde udas
Å Ĥ
Ġsuperfici es
Ġcos to
ĠA Ãĳ
Ġpas ar
Ġde porte
mi a
Ġf eder
Ġpa de
Ġfij os
Ġacord ar
ĠDes cribir
ĠL lo
Ġfen Ã³m
Ġinspec ciones
Ġen ca
ĠB ase
Ġf ia
ĠIN G
ues tas
Ġgan ancias
Ġ198 3
Ġigu ales
t ari
Ġra ÃŃz
ig er
tor iamente
Ġon eros
ĠA di
Ġabaste cimiento
Ġan ul
Ġvisit as
ĠM ec
ĠÂ °
ĠElec tr
ĠclÃ¡us ulas
us os
Ġin ten
ĠIMP OR
Ġimpres cindi
Ġb Ãºsqueda
Ġrequer irÃ¡
Ġtrans misiones
Ġman ual
Ġcorrespon derÃ¡
Ġarch ivo
ĠM ER
Ġconcedi das
s ion
ĠFamil ia
Ġra cial
hor ta
Ġefectu ados
ĠUn o
U n
Ġfacilit arÃ¡
ĠSIGU IENTES
Ð ¸
in arios
z ando
Ġobje tiva
p s
gu en
Ġreglam entaciÃ³n
Ġexpl ica
Ġdepor tiva
Ġfuer an
Ġpa gas
ent amientos
Ġcomplem entos
Ġanti gu
Ġv ent
ĠUN IVER
ĠConven ios
a torios
Ġtom ado
Ġgrav edad
Ġgaranti za
ĠaquÃ©l la
Ġprecis amente
Ġincent ivos
en cial
ĠLuxem burgo
Ġpresent an
Ġconfigur aciÃ³n
ĠJe fes
ĠCon greso
ĠM as
Ġanti dumping
Ġcomple tar
ib ro
Ġdirig ido
Ġh os
Ġps ic
Ġtransi torio
Ġh ÃŃ
Ġcontin Ãº
ĠEqui pos
Ġapropi adas
ter restre
30 2
ĠPÃģ G
Ġadelan tados
Ġnorm ativas
Ġin her
Ġsent encias
ĠMar ruecos
ĠD IA
ue bles
g re
Ġapl iquen
ĠIn de
Ġapel l
Ġeduc ativos
Ġalcoh ol
Ġutil idad
Ġarti fici
ĠelÃ©ctr icos
Ġsometi das
Ġobserv Ã³
ĠRes uel
Ġad ul
ĠDeleg ados
Ġaband on
Ġf ic
ĠAn te
Ġmani pulaciÃ³n
Ġneg ativa
AR SE
ĠEMP RES
Ġrelig iÃ³n
Ġsol idaridad
ĠDes arme
ĠelÃ©ctr ico
d um
ĠseÃ±al adas
Ġa val
gr ÃŃa
Ġasign ados
Ġajust es
Ġhipo tec
Ġcompr ensiÃ³n
ĠB as
Ġdelincu encia
Ġapl ique
ĠExtre m
Ġk il
ĠT RI
Ġapropi ado
ĠtÃ©r m
ĠM IL
ug ar
Ġelectr icidad
urr idos
Ġtrans acciones
Ġforma tivo
Ġcontes taciÃ³n
Ġhom og
Ġa fric
Ġrefle ja
Ġex ti
ĠMÃ¡s ter
ĠAbog ado
ĠArg entina
Ġcor rupciÃ³n
Ġdig ital
ĠPlan ificaciÃ³n
C AS
Ġobten idas
ĠU TIL
Ġmues tre
Ġconcur ran
is ten
0000 100
Ġluc har
t d
Ġtr aduc
Ġg e
Ġta ba
ĠNeg oci
r Ã³
or di
s es
Ġcontempl a
Ġcom puestos
Ġplante ado
Ġpublic arÃ¡
ĠOr ig
ĠDur aciÃ³n
ĠhÃ¡bil es
Ġreun ir
Ġtel ecomunicaciones
Ġdis oluciÃ³n
Ġpror ra
ĠEs cal
Ġmil es
Ġsex agÃ©simo
Ġre an
Ġfran cÃ©s
Ġmez cla
Ġcelebr arÃ¡
ĠmarÃŃti mo
Ġsu g
Ġpoten ci
ĠperiÃ³ dicos
ĠJ a
ĠA MB
Ġindemn izar
Ġasoci adas
Ġdirec tiva
U no
Ġ10 3
ĠJurÃŃdic os
ĠS IS
Ġ it
ĠEs a
Ġpeligr osas
Ġr ue
Ġher man
Ġrel ieve
Ġha bilitaciÃ³n
Ġnumeros as
Ġatribu ciones
ĠDe b
Ġref uer
endi do
ĠcientÃŃfic o
ĠFinanci aciÃ³n
Ġadquir ido
l l
201 7
ĠIgu aldad
Ġconci encia
Ġcontinu ada
Ġide a
Ġred on
Ġadscri tos
ĠExtrem adura
Ġprove edor
ĠDISP ON
Ġinstitu cionales
Ġcu sto
pe laciÃ³n
Ġsopor tar
Ã³g icos
ĠObje tivos
Ġclar idad
Ġfu turos
Ġe ficiente
Ġtom ando
Ġban cos
Ġtram it
Ġh istoria
Ġte Ã³r
Ġinval idez
ĠPRO F
Ġrecurr ente
ĠNa v
Ġais l
ĠT e
Ġconsider adas
Ġminis terial
Ġconces iones
Ġdetermin an
ona to
cu pa
Ġindustr ias
Ġb eb
Ġdirec tivo
Ġfin anzas
Ġfra ude
Ġcon ducir
Ġacog e
ĠAd u
ri endo
ĠC e
Ġflex ibilidad
Ġespa cial
ĠorgÃ¡n ico
ĠIntro ducciÃ³n
c aciones
Ġmar g
Ġab arca
Ġdes crito
ĠCi udad
Ġconten er
Ġincrem entar
ĠAN TERIOR
c ando
ĠEX TR
Ġrec urrir
f ono
D U
ĠSal ario
Ġpad re
Ġreper cusiÃ³n
Ġlabor es
Ġten ÃŃan
ven ida
ens or
n ado
Ġcoe ficiente
ĠEspaÃ± ol
Ġlen guas
Ġvia bilidad
OR A
Ġen cima
ĠRe af
Ġva ya
Ġreca udaciÃ³n
ĠgÃ©n eros
Ġb os
M AN
Ġregistr ado
Ġprof undi
Ġex teriores
ĠAUT ONO
ĠR P
ĠEx pl
ĠCas tel
ĠH ospital
Ġdic tÃ¡menes
ĠExper tos
Ġrevis ar
Ġperju dic
ĠDirector a
Ġcan ales
Ġaccesor ios
plem ente
Ġacog erse
ĠIn dic
Ġcere ales
Ġres istencia
ĠEUROPE A
ER AN
Ġindemn iza
Ġcul tivos
Ġbre ve
ĠCar re
Ġreno va
Ġfran co
Ġh arÃ¡n
Ġesc uela
b el
Ġcer ca
ĠÃĵrgan o
ĠSeg uros
ĠM ON
di as
Ġplante amiento
Ġamenaz as
EN TOS
ĠCorpor aciÃ³n
Ġdeud or
stur ias
Ġlici taciÃ³n
ĠCON DI
Ġmetodo logÃŃa
ĠDetermin aciÃ³n
Ġsub pro
Ġcompe tencial
ĠOFICI AL
tan o
Ġqued arÃ¡n
Ï ħ
ĠProgram as
ĠMÃ³d ulo
in er
Ġtra tos
Ġm l
Ġreglament ario
Ġporcenta jes
on d
Ġorganiz ar
ĠefectÃº e
ol uciones
ĠDERECH OS
g ra
Ð µ
ĠT AB
Ġsector ial
Ġconsider ados
ĠG ab
Ġtiem pos
ĠaÃ± adido
Ġlegisla tivas
Y A
Ġtrabajador as
ĠD entro
E MBRE
ĠsÃ©pti mo
Ġencar gada
Ġ198 2
Ġmov imientos
Ġden egaciÃ³n
Ġser v
ĠP E
Ġelim in
Ġdi ario
Ġaprovech ar
Ġvaria ble
Ã¡ u
ĠResuel vo
Ġentender Ã¡n
ĠEspe ci
Ġe pÃŃgrafe
ĠT he
Ġmen udo
im e
oc en
tor ial
Ġdemos trar
ĠReglam entos
Ġinter venir
Ġsustitu irÃ¡
ic ada
Ġcontra tantes
a gr
Ġpron to
s al
d ra
Ġconsider Ã³
ens aciÃ³n
l uc
Ġaux iliar
ĠE gipto
ĠAl ta
Ġleg alidad
ĠR ies
US TR
ĠPropi edad
Ġpar tÃŃ
Ġcre ciente
Ġdisp uso
Ġdur a
Ġdespl iegue
Ġinflu encia
Ġinde fin
Ġcubier ta
Ġqued ando
tal idad
ĠCONVEN IO
ĠSu plemento
ĠCom isiones
Ġjurisdic cional
c or
Ġpen itenci
Ġco tiz
co pia
ĠH or
fe der
ARR OL
an se
ĠHun grÃŃa
Ġcontrac tual
ĠrÃ¡p ida
Ġsometer se
Ġofici osas
ĠD A
Ġay unta
ĠColom bia
ĠAC NUR
Ġcompren der
A n
ĠN UE
ĠZ el
Ġexclu idos
Ġparti dos
ĠMa y
Ġdes igu
Ġman u
tu ania
UL A
Ġcal cular
Ġlabor ables
ĠAC TIV
ĠClas ificaciÃ³n
ĠDES ARROL
Ġpublic aciones
Ġgaranti ce
Ġvein ti
Ġileg al
Ġla m
Ġser vir
Ġtranspor tes
ĠT OD
ven ia
Ġc urr
ĠSer bia
Ð ¾
ĠMedi os
ĠCON TEN
jer as
ĠL ista
Ã ļ
G T
Ġinter nas
Ġa gu
ĠE uros
Ġperio di
ĠP an
Ġdic tada
il ados
ĠSOL ICI
ent re
Ġres tituciÃ³n
ĠPrincip ios
ĠaÃ±ad ir
bre gat
Ġprev isi
Ġestudi ar
Ġconstitu cionales
Ġsan eamiento
aliz ados
Ġd arse
Ġinser ciÃ³n
ĠVigil ancia
Ġe cus
S OS
Ġal re
ha us
Ġv ino
ĠMur cia
Ġdi jo
TIC AS
res oluciÃ³n
ĠP O
ĠA do
Ġalmac Ã©n
Ġlibre mente
ĠP ensiones
m er
ĠDic has
Ġhog ar
i tÃŃ
ĠESPAÃĳ OL
Ġpro te
Ġdis tr
Ġparticip en
Ġre as
Ġfundam entalmente
Ġdesarroll en
Ġviv en
Ġpi el
Ġdeclar Ã³
Ġvalor ar
p h
Ġconces ion
Ġar te
Ġemp rendi
Ġpes e
01 00
Ġcl ima
Ġrepro ducciÃ³n
ĠDesp uÃ©s
ĠDIREC CION
Ġt es
Ġm igrantes
Ġvac ante
Ġres ar
EN E
Ġdesa par
198 1
Ġrev esti
en ca
Ġremun er
Ġor ador
ĠS TC
Ġpen as
Ġ---------------------------------------------------------------- ---
il ar
Ġtari fa
ĠESPE CIAL
OL OG
ĠseÃ± ora
in stitu
Ġestableci endo
ĠSin dic
Ġconcre tamente
Ġextran jera
i la
Ġl ingÃ¼
Ġfirm antes
Ġconex as
Ġvo z
ĠTerritor io
Ġdepen de
Ã³m ica
idu ci
Ġf ol
Ġcul pa
Ġfin alizar
Ġviv os
Ġescri ta
Ġconvoca torias
Ġregul ada
Ġpr ensa
Ġveg etales
Ġad mitir
Ġsocio econÃ³m
Ġpropi edades
ĠmÃ¡qu ina
Ġref rig
ta bles
Ġprev al
ĠAy uda
Ġfes tivos
ÃŃ metros
Ġ11 6
ĠTRABA JO
Ã© anse
ĠREAL IZ
Ġvari aciones
Ġinv it
Ġemb ala
ĠDirec tivo
ĠMo de
Ġcomplement arios
ĠLi tuania
Ġfundam entos
pro p
ĠDe porte
TR AS
Ġcon ferencia
Ġveg e
Ġmensa je
Ġrefer entes
ĠR w
ĠOB JE
ĠTrib unales
Ġan unci
Ġacum ulaciÃ³n
ĠCuesti ones
Ġlle ve
ĠRef undido
Ġ6 00
Ġpri va
Ġh ue
Ġarbi traje
ĠB r
ĠIN CLU
Ġdesas tres
om o
ĠN ACIONAL
Ġau tÃ©n
Ġul tra
Ġtrabaj ado
Ġconj untos
Ġdirig entes
ĠL en
ĠC D
ĠR ÃŃo
Ġpol i
Ġfu tura
ĠAP ROB
Ġcomple j
biÃ©n dose
Ġcumpl iendo
].. ..
Ġcomprendi das
Ġsubra y
Ġnorm ales
ĠaÃ© rea
Ġaj ena
Ġdeb ÃŃan
F E
bil iz
Ġenv ases
Ġrecons trucciÃ³n
ĠLlo bregat
ĠSERVICI O
Ġdesplaz amientos
ĠSeÃ± ora
Ġa fin
ĠDE P
Ġanal ÃŃ
ĠL td
Ġsosten ibilidad
01 0
Ġ0 7
-------- ----
Ġr am
Ġlle ven
Ġperman ecer
Ġren uncia
Ġcomb inaciÃ³n
am eric
Ġhom bre
R ep
ĠINS TITU
Ġconsidera ble
itos an
ĠCategor ÃŃa
Ġalter aciÃ³n
Ġrelacion ado
Ġp ilo
aliz ada
Ġenumer ados
Ãį A
Ġmedioambi entales
ĠCaracter ÃŃsticas
ĠAUTORI Z
Ġf lo
ĠMa ur
in t
ĠMer can
ĠI b
Ġuni forme
ĠA sturias
Ġreglament aria
Ġintegr ar
Ġestric tamente
min o
Ġem plaz
ign aciÃ³n
Ġrecog er
Ġincorpor ado
Ġpres idi
crim inaciÃ³n
Ġcoher ente
Ġrem ol
Ġori ental
ĠAC TU
cu enta
ĠR io
Ġanun cios
ĠCompe tencia
IER E
edi o
ol u
Ġcaus ante
Ġco pias
as ia
ĠConsul te
Ġimpu taciÃ³n
Ġd ando
Ġvari aciÃ³n
Ġcom itÃ©s
Ġadj unta
Ġapar ato
ĠSegu imiento
Ġcaus alidad
ĠelÃ©ctr icas
ba i
Ġmodific an
Ġdesp ac
ĠSer Ã¡n
tr ÃŃa
d ados
ĠTRANS POR
Ġag encias
Ġrecog idas
Ġopera cionales
Ġpublic ada
Ġprece dente
s en
ĠÃºlti mas
ĠT AR
D is
OR D
Ġsupervis ar
ĠAPL ICACION
Ġintergu bernamentales
Ġgestion ar
Ġd udas
Ġpres tan
ĠC N
ĠEl im
Ġequ ili
Ġconce de
ĠPOD RA
Ġpol vo
Ġub icaciÃ³n
Ġenla ce
Ġrec uerda
Ġmulti lateral
R eg
ĠC C
Ġextre mos
ac ÃŃa
Ġ-------------------------------------------------------------------- -
Ġajust arse
Ġen orm
Ġcon ciliaciÃ³n
R OS
Ġcaus ado
Ġfr ase
Ġes ter
Ġsignific ativa
Ġquier e
ĠDIGITO Âª
Ġurban a
ĠSuper visiÃ³n
Ġadolesc entes
Ġperspec tivas
Ġarmon izaciÃ³n
Ġurg entes
ĠFIN AN
Ġadquir ida
Ġdiscre p
Ġeta pas
Ġde bajo
ĠSeÃ±or ÃŃas
Ġpeti ciones
Ġneces itan
ĠEslo venia
Ġvincul aciÃ³n
Ġsu bor
ĠO BL
ÃŃ dos
Ġexig ible
al quilo
Ġningun o
ĠIns trum
Ġante proyecto
Ġvaria bles
cla tura
ĠFinanci era
carb uros
ĠJ US
Ġsac ri
ĠSEGUR IDAD
Ġdistin gu
Ġenv as
Ġluc ro
Ġinici aciÃ³n
adu cidad
Ġpun tual
ĠProfes ionales
ĠRw anda
Ġcal i
ĠCa be
ĠO P
p Ã¡r
Ġcoleg iados
Ġsust anci
ues tos
Ġindirec tamente
pÃŃ ritu
Ġsensi bilizaciÃ³n
Ġim pone
Ã©r ico
or aciÃ³n
Ġcarre teras
ĠTAB LA
ADO R
ĠP L
ĠRec omend
Ġlogr ado
z amiento
Ã¡mar as
ĠLa tina
Ġmul ta
Ġuni form
ĠC ambi
ti rÃ¡
Ġbuen as
ĠautonÃ³m ico
Ġforma tivas
Ġimpul so
Ġsan idad
Ġtransc urso
Ġtrabaj an
ĠCorrespon de
Ġnotific aciones
Ġh all
ĠA tenciÃ³n
ĠL ibro
ĠMe j
ĠAd junto
ĠCON C
a par
Ġventa jas
R es
ĠRef ug
F O
cios a
ĠOBL IG
Ġcontrad ic
h idro
di Ã³
Ġes pÃŃritu
tu m
ĠÃ³ p
ĠSi ria
ĠdÃ© fici
Ġtaba co
tal izas
Ġplen aria
Ã³me tros
an t
Ġac cion
ĠespaÃ±ol as
Ġex puestos
tir se
Ġcomen zar
Ġto x
Ġpasa jeros
Ġfavor ecer
" )
Ġfal lo
Ġerrad icaciÃ³n
Ġhor arios
Ġsolici ten
til las
Ġ10 2
ĠFun ciÃ³n
Ġest ancia
ĠC H
ĠCom plemento
ĠDocum ento
Ġdilig encia
Ġotor gado
Ġintegr antes
ma tiz
Ġ0 40
Ġproce dan
ĠL I
ĠArm adas
Ġen de
Ġ0 20
Ġmanten drÃ¡
ĠTerritor iales
Ġencon tra
ĠGR UP
ĠMinis terial
Ġetique tado
Ġfron tera
F ICA
Ġadju dica
Ġho ja
Ġimposi bilidad
ĠaquÃ©l los
U A
Ġex cel
Ġrevo caciÃ³n
Ġcaracter izado
ĠIn m
ĠM emoria
con s
Ġrequer ido
Ġcol o
Ġlocal izaciÃ³n
z adas
Ġoper ativo
ĠPa tr
ĠÃŃntegr amente
ĠPro ducciÃ³n
Ġcuar enta
ĠAyud ante
Ġnumeros os
Ġcontra tado
Ġidi oma
Ġdi visiÃ³n
ĠApro baciÃ³n
AL MENTE
Ġqu ir
ĠEN TIDAD
Ġ11 7
Ġaduan eras
Ġaudi tor
ÃŃ das
der as
Ġdesplaz ados
ĠCos ta
ĠCon feder
ĠespaÃ±ol es
Ġcooper ativas
A s
ADR ID
ĠRES PEC
Ġguar da
c t
Ġn utr
ĠC ru
Ġestu vier
TOR IA
Ã© fono
Ã³n ico
AS TA
Ð ½
ĠEJER CI
ĠD omin
Ġafec te
B I
Ġin ad
tiv e
Ġsitu ada
m Ã³vil
Ġac oso
Ġcomplej idad
198 3
Ġf itosan
Ġofici almente
Ġmedicam ento
pti m
Ġtor no
ĠPo drÃ¡n
Ġho jas
ĠU so
f usiÃ³n
Ġrestaur aciÃ³n
Ġma c
ific ados
ĠAr gel
Ġraz on
ĠQue dan
ĠMIS MO
Ġ ),
Ġo x
Ġtribu taciÃ³n
Ġaliment icios
Ġp ul
Ġcap itales
ÃŃcol a
7 00
Ġr as
Ġin fec
Ġgener ar
Ġrec ar
Ġca ud
ECH A
Ġv isiÃ³n
Ġvolun tarias
ĠCON TR
tu aciones
Ġcompati ble
Ġre quiera
pu bl
ĠacadÃ©m ico
Ġtram o
p p
s ter
ĠAG R
] ...
ĠR ural
Ġcon versiÃ³n
Ġisrael ÃŃes
Ġcap turas
Ġeleg idos
ĠMel illa
Ġcorrespon dencia
teri as
org ia
ÃŃ d
Ġ10 5
Ġsober anÃŃa
ĠÃ ļ
Ġan ulaciÃ³n
ent ando
ĠBan g
Ãį C
Ġas cen
ĠcompaÃ± ÃŃas
Ġsex ta
Ġexpres Ã³
re z
Ġ10 6
Ġconsol idad
se l
Ġveci nos
Ġgu st
ar los
Ġtrata mientos
ĠTransp ortes
Ġrec op
Rep Ãºblica
pe fa
Ġads crito
Ġderi ven
Ã©n do
Ġdescar ga
Ġgobern anza
Ġdesta ca
Ġc aducidad
ĠSom alia
Ġordin arios
u tas
Ġrecomend Ã³
Ġk m
Ġrequier an
Ġdic tÃ³
Ġextra cciÃ³n
Ġre cep
ĠC L
Ġescri tos
Ġmo tores
Ġsim plemente
ĠBre taÃ±a
ĠDefin iciÃ³n
TE C
bi tat
es tr
. Â».
Ġconce derÃ¡
ĠF AC
Ġoc tavo
ĠT oma
ĠEx pres
Ġ% ,
Ġcompor ta
Ġobserv adores
Ġnotific ar
ĠquÃŃm icas
Ġcap ÃŃtulos
ĠM ADRID
es iones
ĠDeleg ado
Ġmanifes taciones
Ġcapa z
Ġformul ario
Ġeduc ativas
Ġtesti mon
Ġabog ado
Ġno tas
20 8
Ġ% .
Ġvid rio
ĠConfeder aciÃ³n
ĠProcedi mientos
ĠsistemÃ¡ tica
Ġlegisla tiva
ĠG obiernos
Ġpar to
ĠDeci de
Ġtele f
Ġ0 9
ĠC LAS
or de
Ġhog ares
Ġdedic aciÃ³n
Ġparce las
Ġc Ã¡r
ĠPresu pues
Ġeduc ativa
Ġblan co
Ġcor te
ĠCh ile
Ġpeligr osos
es as
ĠB A
Ġfij adas
ÃŃ pro
Ġexter nos
ĠCul turales
Ġinsu ficiente
Ġp ec
c re
OL E
ĠaquÃ©l las
ĠLE G
Ġlogr os
Ġnotific arÃ¡
Ġsecre tario
V IA
ĠRes identes
r am
v ado
Ġocup ado
Ġejecu tivo
Ġdecidi do
Ġconstitu yan
âĢ ľ
ĠeconÃ³m icamente
ĠIngen ierÃŃa
Ġal tos
ĠSUPER IOR
ĠL is
ĠEspe ciales
Ġmercanc ÃŃa
tic en
Ġfin cas
Ġpon drÃ¡
Ġpro pa
ĠUN O
Ġs ul
ĠGu a
ci ado
ch ura
Ġnom bres
Ġconsider ada
Ġimp edi
Ġven ido
Ġagricul tores
Ġperio dos
ĠPrincip ado
Ġpu do
Ġp in
Ġtesti gos
Ġa bre
Ġrecib idos
Ġun iÃ³n
ÃŃm ica
Ġconting ente
Ġtermin aciÃ³n
pefa cientes
re os
fici o
Ġra cismo
Ġes que
Ġreci biÃ³
Ġacre edores
ĠM uc
tu vo
idi onal
ĠDis criminaciÃ³n
Ġes cisiÃ³n
Ġal ienta
y ac
Ġdipu tados
Ġestim aciones
Ġmercan tiles
Ġlib ro
em entos
Ġten dencias
ĠDis e
Ġpublic ar
UES TA
ĠÃ į
me til
ĠB IEN
vi endo
Ġunivers itarios
Ġarri ba
Ġorganiz ada
Ġtej idos
ĠES TU
Ġah orro
Ġtr ien
Ġdi Ã¡
Ġhid rÃ¡ul
Ã¡ g
Ġconclu ye
t Ã©l
Ġpre ferencia
Ġque de
ĠE se
Ġfigur ar
E x
ĠV o
Ġm igra
ĠJe fa
ĠInstal aciones
Ġlo calidad
D ER
Ġextin gu
Ġreci be
9 00
Ġproduci rÃ¡
Ġata ques
Ġso bres
Ġg ri
ĠUnivers itario
an g
Ġconse jo
Ġexpropi aciÃ³n
ĠX I
P a
y ecciÃ³n
ĠC anti
Ġad quier
Ġintra comun
T ACIONES
Ġconten ga
ĠPro yectos
Ġapell idos
Ġc m
DO GC
Ġposi tivos
ĠautomÃ¡ ticamente
ĠRE LA
ĠPo blaciÃ³n
Ġc Ã©l
ĠE di
Ġderoga toria
E TAS
Ġpromov ido
te in
ĠvÃŃn culos
Ġno che
Ġprece dentes
Ġfij ada
Ġten dencia
ĠIl les
Ġp Ã³l
Ġl Ã¡c
ilip inas
Ġforzos a
Ġre ducciones
Ġmin er
ĠAn ton
Ġ198 1
vers iones
Ġe mite
Ġrepresenta tivas
Ġaprue be
Ġcombusti bles
Ġinici ales
ĠÃ³ pti
ĠX X
ĠConten ido
Ġver tic
Ġ13 0
ĠFuer za
Ġimprescindi ble
administra tivo
Ġev it
ci r
er e
grÃ¡fic os
Ġexpl ÃŃci
ĠJ ama
ĠF IS
Ġcier ta
Ġprofes orado
ĠLabor ales
b ell
Ġs it
Ġsusp ender
Ġmuestre o
ĠDO CU
Ġdespl eg
P R
Ġide as
ĠCatal ana
Ġn Ã³
ĠBale ars
p edi
Ġh eter
P O
Ġdi aria
ĠGo bern
Ġcusto dia
Ġs ue
IP O
d Ã³n
undi r
ĠAl ma
tar on
ĠM U
ĠNORM AS
ĠCAP ITULO
Ġfavora blemente
ĠL IRPF
ĠPRO GRA
Ġvis ual
ĠLabor al
Ġall ÃŃ
Ġdirec tos
ĠD UR
Ġotor gar
ti endo
ĠSosten ible
ĠOM C
Ġpercib idas
va quia
iste mas
Ġdelim itaciÃ³n
Ġex entos
Ġex haus
Ġeleg ido
10 5
Ġk ilo
as iÃ³n
Ġfun cionales
Ġneg ativas
Ġpuer tos
ĠM en
ĠdÃ©fici t
ĠcompaÃ± eros
id ores
gres os
Ġapl az
ĠsimultÃ¡n eamente
ta ba
ĠS ta
us a
Ġgust arÃŃa
Ġdefini ciones
Î º
ĠCon tin
Ġbas Ã¡ndose
ca t
ĠCOM ER
iger ia
Ġflu jo
f lu
ĠLiber ia
ĠOp tativa
Ġbas ados
ĠAlgun os
Ġdel ic
n eces
Ġcon stancia
Ġentendi miento
ĠAn g
Ġpermiti do
c amiento
Ġindirec ta
Ġcicl os
ĠCivil es
Ġrec ÃŃpro
ri que
ĠDE N
Ġlar ga
adi ciÃ³n
ĠG rupos
Ġhor talizas
on ancia
ĠT an
ĠADMINISTR A
Ġal quilo
ĠseÃ± ales
Î »
s eg
Ġre mo
Ġtr ip
olv encia
Ġcom pl
Ġinform Ã¡tico
Ġcoloc aciÃ³n
ĠBur undi
Ġâ ī
Ġpedi do
contin uaciÃ³n
Ġar quitec
Ġir re
ĠJUN TA
ent amiento
G UN
Ġper pe
Ġ10 4
ĠC reo
C OS
ĠE duc
ĠSal v
ĠFun ciones
Ġtu ber
Ġiden tificado
ĠGe orgia
ĠRE LACION
ĠCom paÃ±
ĠColeg ios
Ġm igraciÃ³n
ĠCU MPL
Ġre ti
ĠDISPOSI CION
ĠFin anzas
ĠHA CIEN
. ).
IG N
Ġc ro
Ġnom en
ĠL et
Ġinci dencias
ĠAdministra tivos
Ġ0 4
Ġ bil
ĠR ad
Ġci udades
Ġregistr ados
ĠCa t
Ġneg ativo
Ġproporcion a
Ġsemin arios
Ġproba ble
Ġdesfav ora
Ġcomunic ado
ĠCa ja
Ġcuer pos
ĠCUAL QU
Ġra tific
ĠE jer
Ġpercibir Ã¡n
ĠElim inaciÃ³n
ar cal
car ril
Ġâ ĸ
Ġprevent ivas
ĠTa ilandia
uer dos
um a
ĠCon duc
Ġmoder n
Ġag reg
Ġrelev antes
Ġalre dedor
Ġimputa ble
ent ra
Ġsatis fa
Ġauto mÃ³vil
i k
Ġurban izable
Ġconsidera blemente
ĠESPE CI
Ġdemas iado
Ġquir Ãºr
pa tr
ĠCuer pos
er bai
Ġvig Ã©simo
Ġsector iales
ĠautÃ³nom o
l Ã¡n
I TO
Ġdefin ida
Ġejempl ar
ĠResul ta
> .
Ġinex istencia
c orro
Ġpon ga
ber g
DI FIC
ĠQuin to
Ã¡ genes
T M
ĠRecomend aciÃ³n
an ticen
Ġproduc en
Ġinter iores
ĠG ES
Ġprimer as
H z
Ġdesarrol lado
Ġas iento
Ġbenefici arias
Ġ0 3
ĠPolÃŃ ticos
Ġtu tela
Ġin gen
ĠEmbaj ador
ĠConta bilidad
Ãºn ez
Ġsin gular
ĠC Ã´
ĠA ra
l y
Ġcomunic arÃ¡n
ĠSIS TE
Ġin tim
Ġremiti rÃ¡
Ġprofes ores
erbai y
in es
r eras
ĠI S
s an
Ġm era
ĠH idro
t ariamente
Ġre ceptor
ĠvÃ¡l idos
Ġestad ÃŃsticos
ĠREP RES
ĠCol abor
Ġtom Ã³
CE L
Ġalum nado
Ġcaus al
Ġotor ga
tem ala
Ġim plem
Ġvac un
Ġcar a
Ġcal or
Ġfru tas
val or
Ġefec tivas
Ġinter ino
Ġr ÃŃo
Ġgratu ita
Ġpreocup aciones
ex cepto
Ġabsor ciÃ³n
Ġgeneral mente
l la
l Ã³n
Ġcompens ar
Ġom isiÃ³n
AR IAS
ĠFINAN CI
to logÃŃa
Ġutil ice
SION ES
ĠCum pl
AN TO
Ġimpugn aciÃ³n
Ġcam pos
ĠprÃ³x ima
Ġcelebr adas
R C
ĠL U
Ġanun cio
) ]
Ġje fes
Ġperfec cionamiento
il eg
Ġaprue ban
Ġsubs an
w are
Ġejecu ciones
Ġimport adores
Ġc oci
Ġca ja
Ġgar anticen
Ġpremi os
Ġaum entado
Ġsig an
me j
cip es
b ul
ĠCon forme
Ġespecific ados
Ġp uso
Ġul terior
ter os
ĠT em
Ġtr i
Ġimp ro
Ġjustific a
Ġexen ciones
ti op
Ġobserv ar
ĠDel ito
ĠIngen iero
ĠSE A
Ġcalcul ado
it h
Î ¯
administra tiva
ĠB E
ĠT u
Ġbos ques
Ġdetal les
Ġalterna tiva
Ġban da
Ġins ulares
Ġexpedi r
ĠPRES EN
t ones
Ġ( ...
Ġres e
Ġver ano
ĠREG IMEN
ĠMi xto
as en
Ġrequer imientos
ÃŃ na
ĠRio ja
ĠP AS
ĠComun icaciones
B OE
CI OS
D AN
ar tÃŃculos
Ġbeb idas
Ġa fron
Ġpeque Ã±a
ĠContra taciÃ³n
Ġotorg ada
Ġ19 79
ĠSIGU IENTE
ĠC F
Ġenajen aciÃ³n
Ġhubi esen
tribu ciones
ĠP NU
Ġdesestima toria
ur aciÃ³n
Ġal em
2 50
ĠpolÃŃ g
ĠZel andia
Ġeleg ir
Ġan tic
ul ado
Ġl ine
% )
ĠInstitu ciones
ti os
Ġrelev ancia
ĠPer ceptor
L ey
Ġdeten idos
ĠA Y
Ġinv entario
Ġanti ci
S TC
MI L
Ġrei tera
Ġestim ado
Ġdilig encias
ĠefectÃº a
Ġinter val
ĠJos ep
i ti
uc ha
res tres
o x
Ġcompati bles
Ġv Ã©ase
ĠUN IDOS
Ad ministra
Ġequip amientos
ĠLet onia
TO RES
m entos
Ġs Ã¡
Ġpeligr os
Ġ14 0
Ġmo biliario
Ġto lerancia
Ġ iz
P I
Ġconclu ido
Ã³g icas
1 01
Ġdes tru
ĠDirec tivas
ĠIn stancia
fer a
ĠQu inta
Ġt Ã³x
Ġabs ten
Ġabon ar
Ġbas adas
Ġfij an
ĠMal asia
Ġimposi ble
ĠDis tribuciÃ³n
ĠSER AN
Ġforma tivos
ĠCe uta
ol es
Ġc Ã¡n
201 8
Ġprecis as
O C
Ġfuer te
jer on
el Ã©ctr
Ġsub contra
ĠmarÃŃti ma
ĠCU ENTA
Ġcan al
u bl
um e
Ġcin cuenta
ĠEl ector
ĠTel ecomunicaciones
Ġafec tos
ĠIND USTR
ĠEL EC
par aciÃ³n
ite d
ĠDISP UESTO
Ġh echa
Ãºm enes
Ġdenomin ada
Ġob sta
IEN DO
quil la
ĠF ilipinas
Ġestrec h
TAR IA
Ġex enta
tra to
Ġaplic adas
ig ue
QUE L
Ġexp osiciones
ĠrÃ¡p idamente
Ġas ci
ĠPro duc
Ġdedic ado
Ġgu ÃŃa
Ġdefec tos
s as
Ġpo dÃŃan
ĠMan cha
Ġexplos ivos
tiop ÃŃa
ĠP unto
Ġcam p
ĠC I
ĠquÃŃm ica
ĠTesor erÃŃa
Ġjue ces
Ġdiscipl inario
ta va
Ġex tens
Ġpa cto
ĠH ASTA
Ġhab ido
ĠEj Ã©rcito
Ġinm igraciÃ³n
ĠTER RI
ĠRES UL
S C
Ġar ts
ci das
Ġplur ian
Ġmotiv ada
Ġcon vers
Ġim Ã¡genes
ĠP riv
Ġfron ter
Ġjustific adas
ĠN os
ĠlÃ¡c te
ĠnÃºcl eo
Ġ14 2
par ti
Ġacredi tada
Ä į
ĠParticip aciÃ³n
Ġnove cientos
ĠPES ETAS
ĠElabor ar
ĠAPAR TADO
u alidad
liqu idaciÃ³n
Ġmor talidad
Ġsupon ga
ĠDi ari
es t
ĠRel aciÃ³n
ar Ãºs
Ġcometi das
t ector
Ġadop tarse
30 3
V AL
ĠOblig atorio
V IN
Ġpre a
tÃŃcul as
ar lo
ĠV ie
Ġw ww
TIC O
inter rump
Ġincorpor a
ĠE r
Ñ Ģ
vi Ã³
Å ¡
Ġreg irÃ¡
Ġllev an
ĠCOMP LE
p rim
Ġacom paÃ±a
ĠTi pos
Ġtecn olÃ³gica
Ġmi ti
Ġan chura
Ġcu m
ĠS uc
Ġtom arÃ¡
Ġvin os
ĠC el
ĠDE CL
Ġderi va
ĠContra tantes
Ġjue z
Ġimpres iÃ³n
Ġespecific a
Ġfij arÃ¡
ĠMal ta
Ġin interrump
Ġejer ce
Ġvia jeros
TAN TE
Ġ12 5
ura tom
Ġpro puestos
ĠREF IERE
ĠE QU
ĠUtil izaciÃ³n
ent ada
ĠArgel ia
ĠMar ÃŃti
ĠPÃģG INA
ĠGENER ALES
ĠprÃ³x imos
ĠOper ador
Ġaerona ve
irm ado
endi entes
Ġpremi o
a Ã±o
ĠJue z
Ġdetermin aciones
ĠD oc
ĠhistÃ³r ico
Ġtrabaj ando
tr aciÃ³n
ĠN ues
Ġdisp ar
ĠCom posiciÃ³n
Ġo ptim
AN A
iz os
Ġextraordin arios
la des
Ġtarje ta
Ġinter n
ĠCÃ´ te
Ġcomp rim
Ġnomen clatura
Ġagrade cer
Ġsignific ativo
Ġtendr ÃŃa
Ġhuman idad
Ġsin tÃ©
ĠCU AR
c urs
Ġins olvencia
Ġintens idad
ĠEst onia
o u
Ġrecog en
Ġrealiz Ã³
tas e
Ġdesp er
Q u
bil izar
ĠO PER
ĠIns truc
ĠlÃŃqu ido
ced onia
Ġsig lo
ĠCru z
na cional
Ġconsol idar
Ġrevis ado
ĠValor aciÃ³n
ĠVall Ã¨s
vo ire
ĠESTU DI
Ġexig ibles
Ġconex os
Ġdiv iden
ĠF ac
20 4
ĠprÃ¡c ticos
il los
Ġpresent arÃ¡n
Ġfir mar
Ġdeclar ada
Ġinclu irse
ĠJ un
ĠRies gos
tor al
Ġg al
ĠCE IP
ic ados
P S
ene z
ĠEs col
I voire
ĠPOD RAN
Ġads cripciÃ³n
ĠL ugar
ari edad
ĠEFEC TOS
eg ro
Ġexig irÃ¡
ĠDES TIN
Ġag ro
Ġman ejo
ĠTel e
ĠGr adu
Ġinher entes
Ġsuf ra
Ġacre edor
Ġunivers itaria
Ġpriv aciÃ³n
form aciÃ³n
el la
Ġdistribu ir
ĠM IE
t entes
ĠK en
ĠCRE DI
h u
m ento
Ġpractic ar
CIEN TOS
ĠGua temala
Ġexp an
Ġcomplement ario
j Ã³n
ĠN igeria
Ä ħ
Ġâ Ĺ
Ġdomici li
A c
Ġflex ible
Ġacep table
Ġdetermin arÃ¡n
Ġcolabor ar
Ġcr ÃŃmenes
Ġba jas
Ġequip amiento
Ġcon fer
Ġasign adas
Ġdirig idos
ĠT Ãºnez
IS MO
so cia
Ġapre cia
Ġmar cado
ĠEx c
Ġal er
Ġgu iÃ³n
Ġin fr
Ġenumer adas
Ġemiti dos
Ġorigin arias
erbaiy Ã¡n
Ġmanten iendo
Ġapropi ados
Ġcom pla
Ġproteg idos
ĠESPAÃĳ A
B OR
Ġcons te
bell Ã³n
Ġrefle x
Ġc ero
M AR
Ġproduc tivo
ĠTO TAL
ĠComis ion
d re
ĠE DUC
ĠB CE
Ġoper ativos
Ġvis ado
].. ...
ĠHACIEN DA
Ã³x ido
ĠEn fer
Ġcual ificaciÃ³n
Ġdirig ir
Ġextran jeras
Ġse mi
Ġsindica tos
ĠdiÃ¡ metro
Ġavan ce
Ġexten der
Ġsustan tivo
Ġfac h
Ġhid rÃ³
m ÃŃ
cion ados
Ġren unci
Ġin to
Ġrein tegro
Ġhici eron
ĠCompaÃ± ÃŃa
ĠMÃ© todos
Ġavan zar
ĠCom itÃ©s
Ġsecu encia
Ġdesaf ÃŃos
Ġv ar
Ġrepres iÃ³n
Ġconcur ren
v ol
Ġdese en
ĠGar antÃŃa
ĠA QUEL
Ġform ado
Ġdistin ciÃ³n
ine te
Ġextr adiciÃ³n
Ã± e
Ġkilo gram
ĠefectÃº en
ĠMa cedonia
ĠDisp osi
Ã© ticas
Ġelec tro
s ic
Ġneg lig
Ġma es
198 2
Ġimpres o
ĠPos teriormente
Ġh ec
Ġsubor din
Ġdi st
Ġsatisfec has
u ar
Ġconsul tar
ĠU ganda
10 6
ĠPer Ãº
ADO RES
en den
ent arias
Ġcontamin antes
Ġdi etas
Ġintro du
ĠP ala
Ġmodific ados
ĠCon f
Ġreci bo
Ġdesarrol lan
Ãºs ica
Di rec
ĠR am
ĠMode lo
Ġcons onancia
Ġpie za
Ġa pelaciÃ³n
ĠPro ces
10 4
ten egro
m erÃŃa
ĠVal encia
ĠContra tante
ĠINTER ES
Ġdescri be
IE MP
ĠEX PE
30 4
z e
Ġco ti
Ġsuces iÃ³n
Ġinm un
Ġor adores
Ġcons agr
Ġsil en
Ġgan ado
Ġtrans vers
Ġn exo
Ġdes in
Ġcol on
Ġpi ensos
Ġagrup aciones
Ġtraspas o
C EN
Ġace ites
ĠEC TS
ĠE tiopÃŃa
Ġnuev amente
ent arse
AR ES
Ġju ventud
Ġciudad anÃŃa
Ġregistr ada
Î ¼
ĠCONDI CIONES
TER IA
ĠL IB
Ġsin ies
Ġ0 5
Ġper tur
por Ã¡n
ĠNorm ativa
Ġrecog ido
Ġapar ece
Ġhabi tuales
ier en
Ġejempl os
in idad
Ġsem estre
ĠVIG OR
ti Ã³
ĠP UN
Ġtransi torias
ĠBel arÃºs
Ġpun tuaciÃ³n
Ġconstitu irÃ¡
Ġvari edades
Ġindic arÃ¡
ĠY a
ĠTam poco
Ġrelev ante
Ġmez clas
Ġfabric antes
ĠaÃ© reas
ens ores
Ġhuman itarias
Ġsal a
Ġincorpor arse
Ġtrabajador a
T ARA
ĠP Ã¡r
Ġpon gan
is a
Ġadop tados
Ġocasion ados
Ġpan tal
ĠDERECH O
ÃŃ qu
ib ra
Ġconstruc ciones
in arias
ĠRE QU
Ġpreo cupa
Ġresul tan
Ġne um
Ġactualiz ada
Ġcaus ar
Ġconven iencia
iz an
Ġdespac ho
ĠPrÃ¡c ticas
Ġjorn adas
lades h
Ġis las
ĠPRODUC TOS
ĠCrÃ©di to
ĠacompaÃ± ada
Ġme tales
Ġasoci ado
Ġm uebles
Ġapreci ar
ĠEs as
ĠÃģ rabes
ĠestratÃ©g ica
Ġg ama
hi bir
ĠMon tenegro
Ġcom entarios
ĠDis poner
Ġveter inario
. âĢĿ
Ġbas tante
ĠreÃºn an
Ġgr ados
ĠanÃ¡lo gos
al o
Ġindivid u
Ġimpar cial
ĠT res
Ġinmo bili
VEN CION
ĠS ÃŃr
ĠIs landia
Ġre tos
Ġ19 78
ĠO TROS
F R
Ġrecons ider
Ġpolici al
ĠE T
Ġespa ciales
tor i
Ġcomunic ada
tu s
Ġit iner
Ġcompati bilidad
ĠâĢ¦ âĢĿ
ĠTERC ERO
Ġdiscipl ina
Ġh um
ĠperiÃ³ dica
Ġde ducciones
ĠcÃ³nyug es
Ġentre vis
OP S
ĠIn no
10 2
ĠTra tamiento
F PA
Ġme tro
ĠMo v
P TI
Ã³n ima
Ġb y
G E
ĠAr tes
ĠCi entÃŃfic
Ġsa tÃ©l
Ġmensual idades
vo ca
Ġ10 8
ĠÃ¡ rabe
ĠNorm a
Ġlam enta
Ġv ital
Ġtribu tario
Ġid Ã³n
Ġargum entos
Ġanticip ada
ĠSem estral
Ġre clu
Ġajust arÃ¡
ĠG es
ĠTa bla
ĠCanti dad
bil itar
Ġconserv ar
Ġim pide
Ġembar caciones
Ġmutu a
ion almente
Ġ er
T IG
ĠCONTR OL
Ġprom edio
Ġaband ono
Ġdispon gan
Ġdirec tivos
Ġsub terrÃ¡n
Ġproces al
Ġciudad ano
Ġindic Ã³
Ġconcur rir
Ġneg ativos
ĠM ul
i ego
Ġap titud
ĠpÃ¡rr s
mo vil
Ġsitu adas
Ġrecib en
Ġoc cidental
Ġtej ido
Ġimpl iquen
ĠEslo vaquia
ĠRES OLU
Ġcubier tas
Ġconstitu ya
Ġocup an
ĠCON TI
Ġvincul ada
Ġmor al
Ġespec tÃ¡
Ġdeleg ado
ĠLen gua
Ġafric anos
Ġm un
ĠR ey
Ġsub asta
Ġm ental
Ġconsul tivo
N E
Ġ16 0
ĠprohÃŃ be
Ġsol v
ĠAz erbaiyÃ¡n
Ġh uel
Ġexter nas
Ġgarantiz arÃ¡
Ġorient aciones
ĠelectrÃ³n icas
Ġprovin cias
Ġdificul tad
Ġrenta bilidad
ĠAbog acÃŃa
Ġdesc entr
Ġ18 0
Ġex pec
Ġofrec en
ĠfÃŃs icos
p ado
Ġestrech amente
Ãī S
Ġsupon gan
ĠIN TERIOR
Ġdescri tas
Ġpa bellÃ³n
Ġreg irÃ¡n
Ġac titud
clus iÃ³n
Ġconfidencial idad
ĠCORRESPONDI ENTE
ĠRuman ia
Ġmin im
ro m
Ġenvi ado
Ġme tal
ĠR O
eci dos
Ġcambi ar
Ġexam ina
Ġconven cionales
Ġm emor
ĠlÃŃqu idos
Ġimputa bles
M S
Ġh ier
Ġvari edad
ĠUn idades
Ġsal v
ĠCO L
c orpor
Ġman uales
ĠÃŃn dices
Ġsuper ado
ĠT IT
Ġparticip ado
Ġexpres ada
Ġdivul gaciÃ³n
ord ania
ig h
Ġactiv as
ĠCAR LOS
ÃŃ g
ĠS im
Ġin vita
ĠMay or
Ġj ug
C AR
+ +
y n
Ġesper ar
Ġp eces
m un
ĠPLA ZO
ĠHa bida
Ġfran ces
ĠBol iv
Ġco hesiÃ³n
ĠrÃ¡p ido
Ġarch ivos
ĠDirec trices
Ġdesarroll adas
ĠSEC CION
Ġm om
Ġurban as
Ġconting encias
Ġfac turaciÃ³n
fo bia
ĠM ES
ĠEJ ECU
ĠAc uerdos
Y EC
Ġsopor tes
Ġrec ur
Ġc ÃŃ
Ġeficaz mente
Ġcontr aria
Ġrec re
Ġmanten ga
ĠInici ativa
d ing
Ġdes ap
Ġcerr ado
Ġhorizon tal
Ġexp ulsiÃ³n
ĠPon encia
Ġpro ven
Ġestruc tural
ĠM or
egu ir
Ġmag istrados
Ġab rir
Ġorganiz ado
Ġdispon drÃ¡
Ġjustific ativa
Ġsu poner
Ġacu dir
ĠG a
Ġtribu to
ĠMIE MB
A MIENTO
Ġinternacional mente
ĠAmbi ental
ĠRefug iados
Ġrespec tivo
Ġrenova bles
Ġal e
Ġpr endas
Ġ19 77
Ġdeten ido
Ġimpuls ar
Ġseman al
des a
ĠpartÃŃ cipes
N I
ĠHa itÃŃ
Ġconcurr entes
Ġprelim inar
qu inas
Ġreproduc tiva
ĠDic hos
Ġnoven o
Ġfigur en
ER V
Ġsegu irÃ¡n
i tor
Ġdemues tra
Ġcu a
00 2
Ġc ha
ĠIn versiones
Ġa ro
Ġintegr adas
Ġpa cientes
Ġal u
ĠEx tra
Ġcomprome te
Ġdepos it
Ġdos is
ĠC arÃ¡cter
ĠSalv ador
Ġexti ende
Ġfuer e
Ã©r icos
ĠCons erv
ĠÃ¡n imo
Ġsa b
R ev
ade cu
ĠRes erv
Ġocup ados
b is
o t
og raf
Ġban co
Ġbenefici arse
Ġp ur
Ġexpon en
Ġmovil izaciÃ³n
Ġparti do
Ġcompr ue
Ġplata forma
ĠMEDI ANTE
c ante
Ġt h
Ġdetec tar
Ġinter v
ĠComun icar
Ġre mite
ĠC IN
ĠC UL
ĠSeg uro
u re
Ġasign ada
ĠP Y
Ġincompati ble
Ġinstru ido
Ġsuper en
Ġrue das
ĠB AR
Ġiz quier
Ġser es
ĠMinis tra
ĠCu o
yan mar
ĠJ orn
id an
ac o
Ġdeclar ados
a zo
Ġpresent aron
ĠAr quitec
Ġcalcul arÃ¡
Ġh echas
Ġcontin Ãºa
Ġapropi ada
tre a
Ġsilen cio
ĠRec ono
Ġre du
Ġsex uales
ĠP OS
Ġcooper ar
ĠC la
dic as
Ġprorra te
IS I
Ġproporcion ada
Ġdes til
ĠAc tuaciÃ³n
m end
Ġprev ios
Ġpac tado
Ġagr aria
Ġconl le
Ġfor o
ĠO l
Ġdirec tas
Ġform aliz
ĠMO DIFIC
Ġdic tadas
ĠComer cial
Ġrespon de
Ġl in
Ġp ase
Ġcurr ÃŃcul
Ġanticip os
a ban
Ġdesp ido
IN O
Ġinmovil izado
Ġentre gar
Ġcir cular
Ġetique ta
Ġproteg ida
D es
ĠperiÃ³dic as
Ġv ial
Ġpilo to
ĠEstu dio
Ġreduci da
Ġde ja
ĠDes ta
Ġintegr ante
ĠIns ta
ĠUNIVER S
ru guay
Ġad vers
ĠART ÃįC
ĠD ICI
se o
Ġliqu idaciones
ĠSe xta
10 3
Ġmencion ar
ĠDEL EG
Ġdese e
in ado
Ġreci ba
S er
ĠanÃ¡lo gas
ĠConten idos
Ġcooper ativa
Ġtaller es
Ġprefer ente
ĠInf raestruc
bier on
Ġesper anza
Ġabor d
ia c
Ġpriv ileg
ĠPNU MA
ĠfenÃ³m eno
ĠestÃ¡n dar
n al
" ;
Ġcontrovers ias
te ma
Ġ11 2
TAN TES
ti ciÃ³n
Ġno ci
Ġblan queo
Ġj a
Ġindi que
institu cional
Ġelabor arÃ¡
ĠJ er
Ġadi ciÃ³n
Ġform ales
Ġli tig
Ġfavora bles
Ġexig en
g arse
ĠDICI EMBRE
ĠDESARROL LO
ĠDEF IN
Ġaudiovis ual
Ġ iv
ĠEcu ador
Ġcu idados
Ġorigin ales
Ġsustancial mente
Ġurban os
Ġhabl ar
ĠEsta blecer
Ġme tas
Ġactu ando
ar din
te mÃ¡
ĠPAR TES
ĠAy udas
Ġtestimon io
ĠEL E
ul ados
da g
ĠS erv
Ã³me tro
Ġelev ada
ĠH an
Ġevent uales
ĠC IR
Ġdev olver
ĠL icen
ĠVAL OR
Ġcon tados
Ġllev arse
ĠSub venciones
ĠDar fur
Ġab usos
Ġdesempe Ã±a
ĠE ri
eci endo
Ġestu vo
ĠDeber Ã¡
Ġtranspar ente
U B
Ġreiter ada
Ġcontrac tuales
Ġacus ado
ĠGRUP O
Ġla ter
y eron
Ġexpir aciÃ³n
Ġg ol
Ġrestric ciÃ³n
Ġsuper v
Ġconcer n
Ġadministr adores
Ġpar tÃŃculas
Ġcontinu o
ĠRE FER
Ġaproxim aciÃ³n
ĠcÃ©l ulas
b ada
Ġges tor
A M
Ġres titu
Ġdesestim ado
Ġobsta cul
Ġinc ur
ĠEsta ble
Ġcomprome tido
Ġpesqu era
OSI CION
Ġmenos ca
Ġsig na
ĠMA TERIA
Ġc rim
ri os
ĠMa terial
Ġprim ordi
IE A
Ġrefer irse
Ġorden ar
Ġsup edi
tos a
Ġ11 1
in ales
p ur
ĠPen itenci
Ġventa ja
Ġexpl ic
Ġgr asas
ĠEconÃ³m icas
Ġacces ibilidad
Ġdeci mo
Ġden s
Ġcontribu ido
Ġi ra
Ġres idencial
ers iÃ³n
Ġra za
Ġdecen io
Ġba jos
b us
Ġ12 1
ĠInterpre taciÃ³n
Ġdependi ente
2 12
Ġinv ol
ĠCom plem
Ġc Ã¡mara
ĠElector al
enez uela
Ġcre ados
ĠBang ladesh
Ġconta ctos
ĠJu an
ĠA gua
ĠINTER N
Ġpa is
Ġrig en
ĠCarre teras
ĠF ECHA
Ġc edi
ĠmÃ©ri tos
CI MIENTO
Ġal entar
Ġexamin ando
bo a
Ġju ven
ĠX V
ĠautomÃ¡ tica
iden ciales
Ġretribu tivo
ĠV IR
ĠInf ancia
om Ã©tr
Ġa viso
Ġequi tativa
Ġmanten ido
p ran
Ġtermin ado
Ġci encia
Ġtradi cional
Ġliber aciÃ³n
Ġcontra tados
ĠGAS TOS
Ġinform Ã¡tica
ĠPROCED IMIENTO
Ġme ta
ĠCOMP REN
Ġvulnera bilidad
Ġexig idas
err or
Ġform alizaciÃ³n
Ã©r icas
ĠObserv aciones
Ġin adecu
Ġcumplir se
v isi
DI CION
Ġsuces ivos
Ġexclus ivo
ĠInterna cionales
Ġarti culo
ambi a
ĠS Ã©pti
Ġjue gos
Ġmom entos
ĠTra tados
ĠJU AN
Ġacep tado
ĠH istoria
Ġdesign ar
ĠseÃ±al ando
Ġajus ta
anader ÃŃa
UR SO
Ġrendi ciÃ³n
or rec
Ġrequer idos
Ġapor ta
Ġver bal
Ġposi tivas
ĠPresupues taria
Ġutiliz arÃ¡
ĠobstÃ¡ culo
IN CIP
Ġcabe za
ĠL ic
Ġimpar tir
u f
ĠElabor aciÃ³n
o zca
ĠQu isi
Ġintro duc
Ġprefer entemente
Ġaco pl
Ġ0 6
ti po
ĠA guas
Ġin neces
Ġinter lo
Ġproteg idas
Ġre patr
Ġhu bo
Ġresid uales
Ġac Ãºs
k s
20 2
Ġpesqu eros
el es
Ġsi quiera
ĠFUN CIONES
al im
ĠComp ensaciÃ³n
p ula
00 3
ES CO
Ġest an
era to
Ġin ca
ci cl
ĠDi plom
Ġabon arÃ¡n
Ġgaranti zado
tens tein
ul l
Ġdi bu
Ġejecu tividad
Ġcos tas
tr iz
Ġlig eras
Ġmon o
Ġsubvencion ables
Ġres ta
Ġconc entra
Ġdes ac
Ġapor tado
Ġincrem entos
Ġdej ado
Ġagrade cimiento
Ġantigu o
Ġp ea
Ġrec orr
IS O
Ġdi l
a bl
Ġadmisi ble
i ana
ri rÃ¡
Ġdepor tivo
ĠM yanmar
Ġsuministr ar
Ġinici Ã³
Ġrespec tiva
ĠPRO VIN
Ġinver na
ĠAng ola
ĠAC P
Ġopera cional
Ġconten ciosa
ĠLey es
Ġentr Ã³
ech tenstein
ĠObje tivo
Ġcon vier
P ES
i tamos
Ġinter rump
Ġum bral
Ġre torno
Ġexpedi dos
Ġcomun ica
Ġcar tera
Ġtuvier an
Ġpa que
Ġ10 9
ĠFer n
Ġperiodi cidad
Ġinvestig ar
Ġad h
Ġacab ado
ĠmÃ³vil es
ĠInno vaciÃ³n
c Ã³digo
t ecn
por taciÃ³n
ĠDipu taciÃ³n
al el
et arias
Ġcuadr os
Ġde duce
in io
Ġex ija
Ġtel Ã©fono
G AR
Â» )
Ġsan gre
Ġrequer idas
1 20
Ġileg ales
Ġs ecreto
ĠS ri
eg al
ist an
00 5
ĠRela tora
ur g
Ġmar cos
ĠMunicip al
OLE TIN
contin u
ĠTesor o
ĠCambi o
Ġmac ro
Ġsub je
Ġpon en
Ġalcoh Ã³l
em o
ĠG ro
ĠDise Ã±o
ĠhidrÃ³ geno
ĠLis boa
ĠÃ Ĺ
y i
Ġal ent
Ġcorreg ir
ĠCons trucciÃ³n
Ġfacul tativo
pi ra
Ġmar cas
Ġconvers aciones
Ġdetal lado
Ġex tras
Ġmejor amiento
Ã¡ bitat
Ġplante ar
Ġelector ales
cis iones
Ġvolun tarios
ĠEJERCI CIO
ĠExc mo
Ġin qui
Ġsobre pas
Ġseleccion ados
ĠEs os
Ġh el
Ġvir us
AN TES
ĠsÃ©pti ma
Ġagrup aciÃ³n
Ġesta ciones
Ġl um
Ġqu iz
Ġmin us
ĠD ÃŃa
eg uridad
ĠNO VE
ri tÃ¡n
tari ado
ĠseÃ±al izaciÃ³n
ĠE v
Ġr uta
Ġreligios as
eno fobia
Ġser vid
Ġp las
Ġf emen
Ġrazona bles
ĠTari fas
Ġnombr ado
Ġadul tos
ĠU ruguay
Ġprop uso
ĠnÃ³ mina
Ġmantener se
ĠSin dica
Ġexpres adas
Ġtraduc ciÃ³n
ĠTi ene
Ġabog ados
ĠApl icar
ĠAra bia
Ġinc orrec
Ġsub ro
Ġagr arias
ĠONU DI
ĠV enezuela
es es
Ġcontribu ye
Ġj er
Ġen g
Ġindi cios
ĠEl ementos
Ġe cos
Ġgaranti zada
or ar
ĠTRI B
Ġmer amente
irm ando
T D
ĠC IEN
ĠpolÃŃg ono
Ġcre Ã³
Ġrequer ir
Ġcir cul
do va
ĠU R
ft ware
ĠactÃº a
ĠReg ul
IN AS
ĠPROF ESION
ion alidad
al ter
Ġs or
ti lo
centr os
ĠS ON
Ġreclam ar
Ġcompren den
Ġbi lateral
B E
Ġcom puesta
Ġinclu yan
Ġinter posiciÃ³n
Ġenjuici amiento
Ġintro duce
Ġadministr ador
Ġrepresent ados
e de
Ãį S
Ġinsp ector
Ġasign ar
Ġal iv
ten ciales
ĠH oras
Ġpro xim
Ġpun tualidad
te or
tific ada
Ġdirec tivas
Ġver se
Ġdescri tos
ic ales
ÃŃm bol
Ã ¯
Ġd ro
Ġcomprendi da
h id
Ã©s ima
Ġquer emos
ĠCoordin ador
Ġf l
ĠF arma
Ġexpres ados
m u
Ġinter s
ĠAPL IC
vil la
s ol
ĠactÃº e
ĠPR INCIP
ĠH U
Ġcaud al
ĠCa paci
ĠU C
Ġconstitu idas
Ñ Ĥ
Ġtransmi tente
ĠPER IO
Ġmedi r
ĠRad io
Ġprev e
ĠCER TIFIC
ĠmÃ¡ r
Ġro man
ĠL am
iz ador
Ġw ith
Ġmal os
ĠR ica
Ġliber alizaciÃ³n
> >
Ġdeliber aciÃ³n
Ġcatal ana
ep al
ĠAs socia
Ġj unta
ĠT AL
Ġter restres
ĠplÃ¡s tico
Ġ11 3
ĠK o
Ġlabor atorios
Ġexig ido
Ġt as
Ġesto y
on os
c r
ĠCer tificado
Ġfich eros
Ġg er
Ġhi p
Ġinci dentes
udi ta
ĠM ic
Ġespecific ado
Ġjus tificado
Ġ13 6
ĠG aza
Ġdesestim aciÃ³n
Ġdepor tivos
om al
Ġrecon ciliaciÃ³n
Ġsuger encias
ĠdiseÃ± ados
ÃŃ l
Ġ ente
D RA
orr os
u x
ĠB io
Ġpar ciales
pro pi
ĠCon oci
Ġcomple tamente
Ġri t
Ġfacul ta
ĠQU IN
ĠREPRES EN
EN CIAS
ad ie
Ġvincul ado
Ġc enso
Ġlleg Ã³
ĠFiscal ÃŃa
Ġsemin ario
Ġespecial istas
ri eron
on da
Ġdo taciones
Ġunivers itario
Ġfinal idades
fic aciÃ³n
F irmado
Ġcel ebra
Ġdi ver
ĠReconoci endo
Ġdis cu
ĠP i
z arse
Ġpeque Ã±o
or i
ĠLi echtenstein
ĠVe hÃŃcul
G R
ve lo
Ġv endi
ĠJ UR
financi aciÃ³n
ĠSal vo
ĠN I
ĠG ol
in ados
Ġca bal
Ġaplic ada
ĠCons i
TOR IO
Ġaplic ados
ĠJu ventud
ill erato
ĠCOMPE TEN
Ġb eca
Ġespecific an
Ġent abl
Ġpl iego
tis mo
Ġpros tituciÃ³n
Ġh ar
ĠAc redi
ĠTR AS
Ġes pos
ĠNOVE CIENTOS
Ġcontra tar
H A
Ä Ļ
Ġre acciÃ³n
ĠS C
ĠEscal a
ĠJ ordania
AL E
Ġcelebr ados
Ġconstru ir
trimon iales
Ġreintegr aciÃ³n
Ġoblig adas
ĠV is
ĠE F
Ġbil le
ĠÃį n
Ġser ÃŃan
J U
ĠFundam entos
Ġra tificado
Ġ------------------------------------------------ ------------
Ġejempl ares
Ġde mar
ĠCORRESPONDI ENTES
EN O
s iones
Ġ12 7
ĠacompaÃ± ado
20 3
Ġfun daciones
p ir
apar tado
Ġevac uaciÃ³n
h al
c arse
Ã¡ tr
Ġcuestion ario
ĠEn sa
ĠF il
Ġantici po
Ġexclu ye
ĠTari fa
Ġbi bliotec
Ġcoleg as
Ġprov idencia
B OLETIN
Ġmensa jes
ĠIR PF
ĠMar ina
terrÃ¡n eo
Ġordin arias
br an
ĠAPL ICA
ex iÃ³n
ĠSE Ãĳ
Ġtem pran
Ġvolun tariamente
er te
ema to
âĢ¦âĢ¦ âĢ¦âĢ¦
Administra tivo
Ġflu jos
Ġende ud
am e
ĠacadÃ©m icos
ĠMec an
ĠTrans c
ic es
Ġno t
Ġaclar ar
Ġllev Ã³
Ġjusti fique
Ġhabi tualmente
ĠAc tos
Ġsuprim ir
Ġkilogram os
Ġpro clam
Ġpre de
Ġarren da
Ġobserv ado
ĠES TOS
Ġes taciÃ³n
Ġtrans acciÃ³n
Ï Į
Ġelabor ados
ĠPo tencia
tin o
Ã© cimo
Ġllev arÃ¡n
ĠARTÃįC ULO
ĠMar tÃŃn
Ġ14 8
Ġextre m
i riÃ³
Ġembala je
ĠR ib
Ġmedi anas
Ġh orm
Ġman io
Ġdeman das
ĠLan ka
Ġveter inarios
ĠMedi cam
dam ientos
Ġconv ivencia
Ġoportun os
ĠclÃŃn ica
ĠanÃ¡lo ga
Ġgan ancia
ĠQuisi era
an gu
iz ando
tu ar
ĠfÃ³rm ulas
ĠDeleg ada
ĠMov imiento
CRI P
Ġadj unto
ĠMEDI O
Ġreten ciones
ida ble
ĠUN MI
Ġal fa
Ġre pu
TIC OS
Ġenvi ar
Ġais lamiento
ĠFIN AL
Ġinterlo cu
uman os
ĠDUR ANTE
ĠIn clu
ĠR i
Ġdemoc rÃ¡tica
Ġabsor b
Ġmedi ano
Ġconse jos
ĠP uesto
a ter
Ġv ocales
Ġdesarroll ando
ĠYugosla va
Ġ12 2
Ġfi anza
ĠE uratom
vi ese
Ġimposi tivos
er amente
Ġpres unciÃ³n
Ġarm ado
Ġpropor cionalidad
Ġse tenta
Ġnotific ada
ĠpÃ³l iza
Ġproyec tado
Ġman tienen
Ġminer ales
Ġsuscepti ble
Cu ando
Ġal ine
ĠCUALQU IER
ĠDIGITO Uno
C OL
Ġrad iac
Ġembar azo
Ġexclu idas
Ġgener ados
Ġoc h
ig encia
ĠAr ti
VIS ION
Ġcircu itos
ĠT ierra
Ġr ama
1 50
p ensiÃ³n
Ġtecn olÃ³gicos
Ġprovis ionalmente
Ġmodern izaciÃ³n
Ġadmiti dos
ĠSi tuaciÃ³n
Ġa mino
ĠOrgan izaciones
ĠY o
Ġpas an
AD RO
ĠT IEN
gram as
ĠO MI
Ġdesp ro
r ad
Ġps ÃŃqu
Ġ12 3
Ġes co
cio cho
ĠPRIM ERA
Ġinverna dero
Ġcoinci de
Ġf rag
tic u
ĠT ener
ĠR u
ĠH emos
Ġdesarrol le
eci das
am ino
Ġedi ciÃ³n
ÃŃ fer
Ġ ital
Ġconvo car
Ġrig uros
Ġ jo
Ġfiscal izaciÃ³n
200 0100
Ġaux il
Ġinterv ienen
Ġingres ar
z go
Ġrevis iones
ĠPro ceso
Z AS
Ġbanc aria
ĠC ES
Ġvege tal
Ġcompon en
Ġconoci do
ĠUnivers al
ĠEx plo
ĠT error
it as
ĠRe forma
Ġconjun tas
Ġenfo ques
us iones
X X
Ġagres iÃ³n
Ġno ti
Ġcr uc
ĠRe ci
Ġsus cripciÃ³n
ĠPue blo
Ġaeropuer tos
ĠT anto
Ġlo te
Ġf ili
Ġcatal Ã¡n
Ġso corro
. :
Ġtuvier on
ĠFu ente
Ġneglig encia
ĠJorn ada
vier on
ĠSU P
ĠC OS
Ġs uelos
Ġcas illa
Ġexig ida
ĠMercan til
ĠLi bia
ĠV ac
Ġencontra ba
ĠB ases
Ġha cÃŃa
Ġdepen den
Ġentren amiento
m al
Ġexpl icar
Ġequili br
Ġarm adas
ĠEri trea
Ġfru tos
Ġin tr
Ġsospec hos
Ġjus ta
ĠMIS MA
ĠdemocrÃ¡ tico
orden adas
c ent
Ġguar dia
Ġcontrovers ia
Ġcar tas
ĠS um
gen da
ĠFAC UL
TA MIENTO
Ġtr adu
Ġsum amente
Ġlleg ada
Ġfoto copia
g ues
aza j
Ġreun irÃ¡
ĠE TI
MI DAD
Ġca tas
Ġponer se
uer a
Ġarticul ado
ticu atro
Ġganader as
Î ¬
Ġindivid ualmente
Ġcar ece
Ġ17 0
Ġque ja
Ġconc ord
Ġesc uch
ĠFa cil
ĠvÃŃn culo
Ġinscri tos
st Ã¡n
Ġfacilit ada
Ġ zo
Ġindic ador
ĠVi la
Ġcar nes
Ġapor tados
one idad
ĠGab inete
ĠAp Ã©ndice
> ,
BL ICA
Ġclasific an
iduci ario
Ġ2 30
Ġcotiz aciones
ĠPro cede
tu re
v ino
e da
Ġsal dos
ci pe
Ġoper ativa
Ġlegisl aciones
ga pur
Ġalcan zados
ici as
ĠPar ÃŃs
Ġimpugn ada
ĠKen ya
bil ita
ĠREG ISTR
Ġcorpor aciÃ³n
Ġencu adr
Â» ;
pl ica
ent arÃ¡
Ġjus to
Ġorganiz ativas
Ġdeci de
Ġtecn olÃ³gico
11 1
Ġcin eg
ĠT RES
Ġobje ciones
Ġintroduci do
Ġvuln eraciÃ³n
Ġaler ta
Ġluc ra
Ġac titudes
Ġcons angu
10 9
Ġinco aciÃ³n
Ã ¥
ĠIndustr ias
Ġenvas ado
ba jos
ĠR oma
Ġinter rupciÃ³n
ch as
Ġter ap
Ġrecip ientes
Ġform en
ĠD IF
y entes
ĠJo an
Ġconduc tas
Ġestad ÃŃstico
ĠRe ferencia
ĠJUS TI
f an
Ġdeb idas
ĠP EN
Ġespecial izada
Ġespecial ista
ta g
Ġ0 70
Ġparticip ante
ĠCul tural
de mia
ĠAc tualmente
Ġglob ales
ĠCl Ã¡us
Ġapor tan
men ia
ĠP ues
ĠMo dific
e taria
ĠSa udita
Ġmun iciones
Ġterap Ã©u
ĠDICH O
ĠOblig aciones
Ġh is
Ġhidro carburos
Ġrela tivamente
ĠpÃ¡g inas
Ġaf irmar
ĠH UM
ĠMEN OS
ĠDem ar
10 8
ĠInform es
as h
Ġclasific ados
Ġcal zada
Ġmanifes tado
Ġayunta mientos
Ġnegoci ar
Ġretro ac
Ġcubier tos
ĠN ic
Ġdesem bar
P res
Ġllam ada
L U
Ġn aciones
Ġcircun s
Ġexpl icaciÃ³n
Ġconf irmar
ific adas
Ġse mej
ĠF O
Ġ19 75
Ġseleccion ado
Ġobje ciÃ³n
ĠacadÃ©m ica
ĠS IDA
Ġal ar
ĠÃ¡ to
ĠprÃ¡c ticamente
Ġas entamientos
ĠMon t
en ce
Ġcandida to
Ġval ios
Ġinscri bir
ĠW eb
Ġrit mo
Ġisrael ÃŃ
Ġej es
is ion
dic to
ĠcientÃŃfic as
Ġpar ale
Ġconcer tados
S ub
is sa
Ġrese Ã±
tÃŃ an
Ġrelacion an
Ġcuan tos
ĠP MA
Ġpres un
Ġcer can
ĠMa teriales
Ġau tent
bi o
Ã¡m ico
ĠTO DO
Ġpro gen
Ġres table
Ġextra c
Ġferro carril
ĠI g
CI L
ban ia
i ano
C S
cen dencia
Ġca ble
Ġre mi
ĠM inas
Ġdisp uestos
y ente
Ġneces it
Ġprofes ionalidad
Est ados
Ġr Ãº
ĠRes iduos
person al
Ġultra terrestre
ĠA ca
a torias
Ġseg reg
Ġ12 9
Ġretir ar
UL ACION
ĠDef ensor
Ġ Å
ju st
ÃŃn s
Ġplante adas
Ġ áĥ
Ġdev uel
ĠCons ol
ĠB lan
ĠH el
ĠUN FPA
bo ya
Ġalgo dÃ³n
ER IA
ĠIn sp
iem pre
Ġim puesta
Ġdocum ental
ĠR em
) )
Ġdistr ito
Ġago ta
ĠTerror ismo
ĠAl ianza
Ġactu alizar
Ġcl or
Ġh osp
ing res
Ġreci ban
Ġproces ales
Ġrecon ocen
ĠseÃ±al ada
Ġpor cina
ĠL og
Ġpolici ales
ĠAdministra tiva
Ġemerg encias
Ġdirec tores
Ġprovin cial
Ġpro hibir
Ġdesem bol
Ġgarantiz ando
Ġdividen dos
Ġs ÃŃmbol
Ġobserv ancia
Ġmer idional
ĠU l
ol l
ig an
fa to
ĠTOD OS
ĠN epal
ĠÃ¡ rabes
ĠSISTE MA
OR MIDAD
Ġau tos
Ġper cep
Ġpro hibi
ĠAnton io
Ġconduc tores
ĠPrepar aciÃ³n
Ġbus car
Ġaspir antes
Ġque den
Ġconsol idado
Ġe pide
Ġsignific ativos
Ġproduci da
Ġdef ender
Ġinqui e
am bre
ĠJefa tura
Ġcomprob ado
log ÃŃas
Ġcontinu arÃ¡
Ġcompr ador
gr ado
AN OS
ĠlÃ¡cte os
ĠCON TA
Ġcomprim idos
Ġfirme za
ĠO TRAS
Ġdif undir
Ġsuces ivas
fi tr
Ġasegur ado
id or
IG UR
ĠInvestig aciones
ĠS EN
Ġexclu ir
RI L
Ġadap taciones
Ãĳ A
ĠT h
Ġvol Ãºmenes
Ġen mend
ĠPRO YEC
ĠPres identes
Ġutiliz arÃ¡n
Ġadi tivos
Ġorden ador
Ġil um
ĠmÃ¡x imas
ĠTom ando
ĠDECL AR
ĠPer ÃŃodo
Ġimpu tado
ĠU S
ĠSECRETAR IA
te les
Ġhec tÃ¡
eron Ã¡u
Ġcapa ces
Ġacondi cionamiento
Ġl is
v el
ĠT ales
Ġincorpor ados
ĠPROP UESTA
Ġvo tado
Ġcos ta
ĠAd d
Ġcre e
Ġproduci das
ĠDEN TRO
d ul
ĠEst Ã¡
P ara
Ġmagn itud
h ana
Ġpres idencia
Ġmanu fac
Ġenerg Ã©tico
Ġarreg los
ograf ÃŃa
Ġdens idad
Ã £
ch es
ĠvÃ¡l ido
Ġid oneidad
Ġpare ja
ĠÃ ł
ĠL IMI
ĠCam p
ĠMar ÃŃa
Ġar ran
m or
Ġfin alizado
dam os
ĠfÃ¡cil mente
ĠÂ ±
Ġcas a
Ġconcer tadas
Ġsegu ida
J OS
Ġases ores
g es
Ġexter no
L este
ĠDe partamentos
Ġfuncion ar
enci aciÃ³n
Ġfrac ciÃ³n
ĠPuer to
ĠRo dr
Ġvertic al
ĠEFEC TU
Ġprof unda
ĠLicen ciado
Ġregul ador
Ġdesarroll ada
ĠTor re
ĠAUTONO MA
ĠEX IS
Ġrefrig er
Ġsol id
ĠCu enta
Ġdescri bir
D C
Ġdie ciocho
DI A
ĠA ce
ĠvÃ¡l ida
Ġsusp endi
ĠmecÃ¡n ica
Ġconden ado
ĠCor r
ĠAsesor ÃŃa
S R
organ izaciÃ³n
Ñ ģ
igu re
Ġinvestig ador
Ġha ci
ĠUnivers itaria
ĠK azaj
Ġcon venciÃ³n
van se
Ġprea viso
ic adas
Ġpuer ta
unda ciones
Ġcon fec
ĠDEB ERA
z ol
cion ada
ĠSI TU
cla je
ER G
ĠSe xto
or t
ĠPres entaciÃ³n
ĠDipu tados
ĠcÃ¡l culos
AC T
en ciÃ³n
Ġluc es
Ġesca pe
en se
40 3
Ġvein ticuatro
Ġpac tos
ĠBÃ¡s ica
Ġfic ha
Ã³ p
ĠB U
Ġtom arÃ¡n
Ã© is
ĠDemar caciÃ³n
Ġsit Ãºa
Ġob ede
ĠFacul tad
Ġinsu ficiencia
z arÃ¡n
Ġpreserv ar
Ġgesti ones
d s
Ġpres tarÃ¡
ĠPue de
Ġhij a
Ġejercer Ã¡
ĠDIREC TOR
ĠCom arcal
Ġten go
Ġcompu tarÃ¡n
Ġacuer dan
Ġaument Ã³
Ġex puestas
Ġdura dera
t Ã©cn
Ġinst ancias
Ġretribu tivos
ĠPolÃŃ ticas
ĠAr menia
cion arios
Ġ(... )
ac er
Ġrein corpor
Ġracional izaciÃ³n
Ġcoleg iado
em e
Ġ8 00
Ġdin er
Ġsom ete
Ġar as
ĠFe dera
ĠFis cales
Ġsu curs
Ġaleg aciÃ³n
ĠENTIDAD ES
as os
ĠI GU
1 10
tor nos
Ġ19 76
Ġmutu amente
Ð ²
Ġsuf riÃ³
Ġemplaz amiento
Ġconsolidad a
Ġ12 8
S ur
Ġin oc
ĠNatural eza
Ġel e
Ġva por
Ġinter con
ĠÃĵrgan os
Ġcolabor adores
ĠÃ© po
ĠTal ler
dad ura
ĠPo drÃ¡
ĠDeb emos
OS C
ve je
Ġforma tiva
< /
ĠCU AN
Ġimport ador
Ġcoe ficientes
Ġmar inos
is trado
Ġenv ase
in dic
Ġhip Ã³tesis
Ġinvers ores
Ġan omal
Ġ ÏĦ
Ġ3 50
Ġsub partida
ĠO IT
Ġresul tarÃ¡
B O
P ar
ĠPromo ver
DAD ES
ĠT aba
ĠAd ministr
Ġestu viera
ĠOb ra
Ġocur re
Ġajust ar
Ġprecis os
gue z
Ġsubra ya
ĠAN TE
ĠRegis tros
Ġex pone
ĠESTA TU
Ġav iÃ³n
g arÃ¡n
Ġespecial izaciÃ³n
ĠO IEA
Ġespecific adas
Ġexpedi da
Ï ī
V AS
a tivamente
ĠPro tocolos
Ġprecis ar
e ar
Ġnombr ados
Ġque jas
Ġ| ,
Ġbi olÃ³gica
Ġne ta
Ġdirig e
Ġprofundi dad
ĠN ORMA
ĠTor tura
Ġlengua je
Ġdetal lan
Ġt echo
Ġregres o
Ġbre v
Ġcomprome ten
Ġdist or
Ġsuperv ivencia
Ġcorr al
" :
ĠIND IC
Ġconcedi dos
ĠfarmacÃ©u tica
Ġexamin arÃ¡
ĠGar cÃŃa
Ġreconoci Ã³
ĠMÃ© dico
cul a
Ġsec ues
Ġven dedor
Ġdie cis
ĠAlim entaria
Ġdetermin ante
Ġapreci aciÃ³n
Ġsubsidi arias
ĠS il
ĠAlgun as
m edia
Ġacog imiento
Ġpr u
Ġencomend adas
Ġpa gado
Ġcompar te
4 14
I X
on z
Ġdedic adas
ĠA Ã©
Ġsu mas
ĠRE UN
Ġb en
ĠÃļ n
Ð »
Ġdegrad aciÃ³n
Ġaudiovis uales
ĠPÃºbl icos
Ġsufra gar
z be
ĠAco ge
ĠEx cl
Ġaleg a
Ġvo tar
g ulo
Ã¡s tro
ĠPla ta
ĠP rue
Ġliter al
Ġa viaciÃ³n
ĠAl bania
Ġdesign ada
Ġdi eta
Ġherman os
e i
cion ario
Ġpromov ida
Ġpre ju
Ġtrans cri
Ġinto lerancia
ĠDE PAR
er tificaciÃ³n
Ġconcedi Ã³
raf os
ĠING RES
Ġten encia
ct ancia
Ġmatr iz
Ã© cima
ĠX II
Ġtu bos
N R
Ġrepresent aciones
Ġcertific aciones
Ġval ora
ĠSin gapur
ĠCONF ORMIDAD
ĠautonÃ³m icas
Ġhier ro
Ġfacil ite
g ol
UR SOS
Y L
Ġauditor ÃŃas
Ġ------------------------------------------------ --
Ġs pp
isti rÃ¡
ĠO tro
Ġli br
ĠdesempeÃ± an
Ġrig e
Ġdis continu
Ã¡g ina
Ġfirm emente
ĠNa cionales
Ġproces amiento
UE L
Ġauto matiz
Ġap titudes
ba b
Ġ11 9
Ġlegisla tivos
Ġinm igrantes
ĠMi entras
j ur
ĠSÃ©pti mo
Ġqui Ã©n
w i
ĠT ITULO
a cion
Ġman os
Ġ29 4
Ġcircu ito
ĠDICH A
Ġsubreg ionales
ĠcuÃ¡l es
ĠT ANTO
qu in
ĠDEB ERAN
V Ã©ase
Ġ ________
a tar
Ġen rique
Ġdescri ta
Ġllam ado
Ġdeci da
Ġsol ar
ORD IN
Ġespecific ar
Ġconven ciones
Ġhal la
ĠG anaderÃŃa
Ġform ada
Ġinvestig adores
Ġhomog Ã©n
min as
Ġdes vi
Ġtransp osiciÃ³n
ĠRa cial
Ġequival encia
ÃŃcul as
ĠestratÃ©g icas
ĠHa ce
Ġindeb ido
ĠCam boya
Ġapar te
Ġampli amente
Ġecol Ã³gica
Ġ13 3
Ġobten gan
ĠCIR C
ĠAco g
ĠÃŃn tegra
as t
Ġcual ita
Ġdel an
Ġter restre
ir man
Ġobliga torias
un iden
Ġsigui Ã³
Ġgu bernamental
Ġtr en
30 5
Ġ ign
Ġadop tando
Ġderiv an
ĠmÃ¡r genes
ĠF r
Ġprofes iones
P G
Ġca jas
Ġsuf rir
c arÃ¡
Ġmanten drÃ¡n
Ġases ina
ĠSen egal
ĠT IPO
Ġpers ecuciÃ³n
eci Ã³
Ġefectu arÃ¡n
tran s
Ġproporcion ado
le z
ĠAn Ã³nima
Ġsancion adora
do c
Ġencontr arse
Ġtra c
Ġli toral
Ġarro z
Ġexpres o
Ġp is
w o
Ġrec ab
Ġco ordenadas
ĠNegoci adora
Ġabier tas
ĠP OSI
T o
Ġpublic arÃ¡n
Ġacredi tados
pa je
tr en
ĠTRANSPOR TE
A T
MI ENTOS
Ġprovo car
Ġconf irma
Ġemple ar
G OS
ĠAr ch
ĠRe visiÃ³n
ĠL ÃŃn
Qu Ã©
ĠEMP LE
re za
ĠPla zo
C o
pl ante
R EC
ĠHA B
Ġpers egu
Ġpec ul
ĠA M
ĠRepres entaciÃ³n
Ġ13 5
Ġhospital izaciÃ³n
Ġaduan era
tr Ã¡s
ĠK a
Ġ201 9
ĠTan z
ĠcrÃŃ tica
Ġsolici tando
ĠINS TAL
ĠOrden anza
Ġes tarÃŃa
Ġdomin go
IV EL
ci dencia
Ġembar az
Ġinv itaciÃ³n
Ġmodific arse
ĠSO CI
or ÃŃa
ĠJ UL
Ġoc tava
20 9
ĠAl cal
Ġdescri ben
Ġdeduci da
Ġdesas tre
dera zgo
Ġs ales
TAR IO
Ġfacil iten
ĠACTIV IDADES
ĠvÃ¡l v
ĠG RA
Ġcat Ã¡stro
ĠComunicar lo
Ġinter acciÃ³n
U AL
Ġsal as
Ã©r col
Ġpar alel
Ġtransform ados
Ġespecial izado
Ġencar gadas
Ġsignific ativas
Ġpre ven
Ġsuel dos
ĠPA IS
Ġdesigu al
s ar
ĠSus pensiÃ³n
m Ã³s
in c
Ġfes tivo
ĠLI QU
i el
Ġobten ga
ĠCU ADRO
Ġcomple jo
us ieron
ĠMÃ¡ quinas
Ġconfirm aciÃ³n
Ġ13 2
Ġpar itaria
Ġejecu tiva
ĠEx terior
Ġdeven garÃ¡
Ġexpec tativas
Ġf igure
P EN
ques e
ĠorgÃ¡n icos
Ġgrav emente
ĠNA TUR
Ġtram itar
Ġexcel ente
Ġaprob arÃ¡
ĠSubdirec tor
ĠDES DE
Ġnorm alizado
ĠPre cio
Î¿ Ïħ
ĠTrans misiones
IF IC
Ġp il
Ġreci n
Ġafin idad
ĠRe i
is h
Ġacredi tativa
Ġinv ier
ĠPU OSC
Ġoneros o
par te
Ġplante an
Ġci ta
ĠseÃ±al an
ĠDec enio
Ġob s
Ġapar ecen
Ġci encias
Ġmone das
Ġar ras
Ġequ idad
ĠResponsa bilidad
Ġabier tos
Ġacredi ten
Ġabsolu to
dic ciÃ³n
ĠMÃ© todo
ĠEx horta
ĠH AN
Ġtempor almente
E Z
Ġpie dra
ĠOrig inal
ĠF ij
to x
Ġap orte
ON ES
Ġseg un
Ġl u
ĠMA Y
ĠF el
Ġha biÃ©ndose
Ġimp unidad
ĠIb ÃŃd
ru p
ĠP ra
TAR AN
ĠCre aciÃ³n
Ã± ez
ĠRuman ÃŃa
di dos
ĠVer de
Ġpos t
Ġvigil ar
ti dum
ĠKazaj stÃ¡n
Ġcu entan
Ġres um
Ġpo cos
Ġexclu ido
Ġconsul tado
Ġsupon en
Ġcompla ce
ĠEXP RES
f am
ĠÃ¡r bol
Ġm asas
ĠautomÃ³vil es
Ġsatisfec ho
Ġb el
ĠV el
ĠVIR TUD
in d
Ġpose e
ĠilÃŃci tos
48 2000100
ĠTrans ferencias
Ġprohib ido
Ġpractic adas
trÃ³ geno
Ġreca bar
Ġges tora
Ġsolv encia
S i
Ġcon g
ce dencia
h n
ĠAr mas
ĠT IC
z ona
Ġf o
ĠMujer es
fac ciÃ³n
en gen
ĠInform Ã¡tica
ĠFÃŃs ica
Ġadmisi bilidad
AN O
ĠOri entaciÃ³n
Ġasum ido
ĠL LE
Ġsalvaguar dias
Ġac aba
ĠPa trimoniales
Ġconsangu inidad
ha t
ĠMa terias
Ġabsolu tamente
Ġimpl ÃŃci
Ġemple adas
Ġpublic Ã³
Ġps ico
ĠVehÃŃcul os
Ġestu pefacientes
ci er
ĠPRO TEC
di fusiÃ³n
ĠPAR RA
f f
Ġasigna turas
Ġrean ud
. ),
a ce
ĠMaur icio
OR IA
uel es
tel erÃŃa
ĠForm as
ĠTar eas
Ġfinanci ados
Ã¡r qu
Ġfelici tar
Ġperci biendo
Ġcombin ada
ĠA quel
Ġsac ar
Ġnoctur no
Ġasc enso
ĠDetermin ar
Ġdeclar adas
Ġn or
yo to
Ġconform es
Ġverda dera
Ġsol dados
Ġpesqu eras
Ġres tante
ĠOp tativo
pro fes
ĠM os
Ġal i
Ġprior itario
ĠdÃ© cimo
im bab
Ġreconsider aciÃ³n
ĠAc tividad
Ġprimordi al
Ġglobal izaciÃ³n
ĠN ingun
Ġa vis
Ġasoci ada
Ġconclu yÃ³
Ġc ens
Ġdenomin aciones
Ġextre ma
M a
fici e
di cios
oci dio
Ġdefini tivas
P L
ĠReg la
Ġalum inio
Ġplurian ual
Ġla min
ĠN IVEL
Ġ15 3
ĠFer ro
d om
di vers
Ġesti pula
ĠDepor tes
Ġex horta
ig os
ĠCastel l
P er
Ġkil Ã³metros
Ġpar que
ĠSch engen
Ġfeder al
Ġestado uniden
pol it
te des
ĠlegÃŃti ma
ICI O
Ġtercer as
ĠBienes tar
Ġtribu tarios
ĠO m
Ġdin Ã¡mica
ĠUTIL IZ
ĠSubsecre tarÃŃa
Ġ13 4
Ġca ÃŃda
ĠSe villa
Ġesp esor
ĠartÃŃs ticas
us al
veje cimiento
Ġdec ÃŃa
Ġn r
Ġexpan siÃ³n
ĠH id
und aria
Ġcompu tarÃ¡
Ġaeropuer to
ĠR os
Ġadmisi bles
ĠE mi
Ġcas aciÃ³n
and ante
ti eron
IF ICACION
Ġexce dan
ter ia
Ġindeb idamente
Ġtitul ada
Ġpa tente
Ġcl ub
Ġtrabaj en
' '
ĠH am
Ġvac ÃŃo
ĠTra bajos
ĠCa bo
ĠMinis terios
Ġtu bo
00 4
Ġgeo grÃ¡ficas
Ġactu arÃ¡
Ġcomprob aciones
Ġdisp uesta
ĠAutor izaciÃ³n
3 16
Ġfres cas
ĠB on
ĠA EA
ĠSubsecre tario
Ġarancel arios
Ġarbi tral
Ġinter p
Ġsu erte
e k
ÃŃ guez
ĠProvin ciales
ĠCUAR TO
ĠA FEC
Ġexper to
ĠObserv aciÃ³n
ĠTRAN SI
Ġrec reo
ĠAr bi
Ġperten ece
Ġimpre vis
Ġla ctancia
ij an
Ġprecep tiva
ĠAÃĳ O
Ġmo di
Ġconc ursos
ĠUNI ÃĵN
Ġapor tada
Ġafron tar
ent s
ĠReg ulaciÃ³n
ĠÂ« ...
ĠINSTITU TO
ĠHa biendo
Ġocas ionado
Ġav iones
Ġin vi
Ġcobr ar
Ġro pa
Ġmar ino
Ġp ier
in ares
ÃŃ quese
Ġartifici ales
Ġfren o
ĠEs tamos
le t
ici das
Ġejer za
ĠF ON
Ġcorrec toras
Ġenunci ados
ĠInde pendi
es o
1 12
Ġsub grupo
Ġcos m
Ġsuf rag
Ġhonor arios
Ġestructur ado
es tu
Ġdic te
ĠM aria
Ġoch enta
ĠAs igna
Ã¡ndo lo
Ġan fitr
Ġrecuper ar
Ġ12 6
Ġk V
Ġregul arizaciÃ³n
Ġconten edores
ĠParti ci
Ġcompra venta
P AS
Ġpropor cionalmente
i po
ĠMol dova
Ġmedi ciones
Ġresuel ve
Ġinform ativa
Ġpercib ido
Ġejer zan
Ġver dad
Ġ12 4
ĠAn alizar
ĠTER MIN
Ġli qui
Ġtransc urridos
Ġcon tado
ĠESPECI FIC
Ġequi par
Ġemp render
__ _
Ġ14 5
Ġnorm alizaciÃ³n
ĠCon ocer
30 6
Ġg ana
Ġentra Ã±a
âĢ ²
J UN
or ia
Ġuniform es
C D
Ġasegur adora
" ),
ĠVol un
Ġentendi do
ĠTA MB
Ġprol on
ĠJUL IO
Ġde dica
Ġro taciÃ³n
form as
Ġpac tadas
ĠreÃºn e
mis sion
C Ã³digo
ĠESTABLECI DO
Ġcoti di
Ġsu ple
Ġbas arse
ĠP IB
Ġcons ciente
per ÃŃodo
Ġinter oper
ĠAm bas
Ġprior itarias
Ġherrami enta
Ġlegitim aciÃ³n
i tores
Ġprop ici
ĠAn im
Ġcorpor ales
Ġos tent
ĠInter gu
ĠUN ESCO
Ġro bo
Ġasum e
Ġindemniza toria
velo p
TI A
Ġblo queo
T H
er ci
Ġformul arios
Ġcompar tir
ĠpÃ¡g s
ĠNav idad
Ġprepar ativos
Ġasim il
er Ã¡
oci do
EN TAS
Ġrecu bier
Ġestric to
ĠsÃ³l idos
Ġunivers idad
Ġcla us
Ġcon stan
ĠF igur
e til
ĠSuper vis
Ã³n icas
Ġcontribu yan
Ġcor ta
Ġsepar ados
Ġtram itado
d omin
Ġfi je
v Ã©anse
zbe kistÃ¡n
Ġjer Ã¡rqu
Ġacord ada
Ġgratu ito
Ġacel erar
c adores
br ÃŃa
ĠSub ra
fen il
Ġmencion a
Ġderec ha
ĠaÃ±ad irÃ¡
ĠAudi torÃŃa
Ġhuman itarios
ĠC Ã¡
Ġasegur arse
ĠilÃŃci ta
ĠIN TEG
Ġdo tar
ĠVE H
Ġproce dÃŃa
ara gua
ĠMIEMB ROS
19 79
it ada
Ġadap tarse
clus o
Ġbo vina
ĠRodr ÃŃguez
Ġfor os
ĠF U
ĠResponsa ble
ĠF AB
Ġpesqu ero
DU CI
Ġprorro gar
ĠK yoto
Ġa ri
Ġfacil ita
Ġdomin ante
Ġt esor
ante quilla
ĠOBJE TO
Ġas ientos
Ġreflej ar
ĠMedicam entos
Ġdispon drÃ¡n
ĠpacÃŃfic a
Ġpa utas
Ġerrad icar
ĠcurrÃŃcul o
Ġad mite
und amente
er ado
Ġli derazgo
Ġsignific ado
ĠReaf irmando
tor ce
Ġorigin ario
Ġvac uno
ĠMan uel
ĠEN ERO
Ġsil ves
ĠP Ã¡gina
ĠPro vis
NUD H
Ġdon aciones
Ġasci ende
ĠRepresent antes
Ġdeduci bles
Ġrepresent ado
Ġremiti da
ĠCU ER
h ora
Ġemis or
Ġfol le
ĠDECI SIÃĵN
ĠC in
Ġo cul
ĠINS PEC
Ġtermin ar
Ġsepar ada
Ġinterval o
Ġatribu ida
ĠFI J
Ġpol ic
Ġint ento
Ġsuprim e
ĠIn gresos
20 7
Q UES
Ġto me
Ġpoten ciales
Ġsign os
Ġdi lu
Ġesf or
Ã©r g
Ġcomunic arse
Ġad mi
ĠQu iero
Ġrecha zo
er Ãºn
Ġargum ento
ĠT asa
Ġan Ã¡logo
Ġproba blemente
G I
Ġpor te
ĠhÃ¡ bi
Ġseman ales
Ġlleg a
Ġ13 1
ĠEspecial ista
pres u
ĠSEC CIÃĵN
Ġfitosan itarios
Ġap ariciÃ³n
ad uras
ĠSel ecciÃ³n
Ġbar reras
Ġconc urs
Ġhuel ga
Ġacredi ta
L L
ĠAl ienta
Ġag encia
Ġsubpro grama
Ġabon ado
Ġtom arse
Ġinad misi
ĠPY ME
M ES
ĠTransc urrido
Ġampl ias
ĠZ imbab
Ġjustific antes
Ġv uelos
vi e
M o
Ġdisp ens
Ġfres cos
it Ã¡n
Ġofici os
m entaciÃ³n
EN A
Ġro tura
Ġecos istemas
Ġexis tÃŃa
Ġpo table
Ġb ro
TI Z
Ġcal e
ĠFin al
Ġintroduci das
Ġobserv ador
Ġces aciÃ³n
ĠF AR
ĠIntergu bernamental
Ġda to
ĠSec undaria
12 5
Ġotorg adas
ĠK ir
Ġmuc ha
Ġ14 1
P RO
Ġre ingres
Ġextra ju
Ġinfr ing
Ġdetermin arse
Ġdes movil
Ġsos tiene
Ġentra Ã±
Ġcomunic Ã³
ĠG hana
Ġintens ificar
3 01
ĠdifÃŃcil es
Ġdedic ada
Ġ14 4
ĠBAS E
I RA
ĠH OR
N Ãºmero
es tas
Ġtr amos
Î ³
Ġconv ic
tel ares
ĠJUSTI CIA
Ġdes mon
Ġbru ta
Ġd arÃ¡n
ĠEX TERIOR
Ġevit ando
Ġfren ado
Ã¡m icos
Ġcoordin ada
yac entes
ĠG onz
Ġb ritÃ¡n
' s
ic ana
Ġexac titud
Ġimpl ique
Ġat mÃ³s
Ġanti gua
Ġinci dente
Ġata que
a cional
Ġseg ura
ĠF RAN
ĠL ucha
ĠRo ja
IN E
Ã¡ ce
AR I
Ġ9 00
ĠF ru
ĠespectÃ¡ culos
Ġap un
di sp
ĠES TAD
x tos
ĠIN TR
Ġviv o
) (
Ġde biÃ³
N P
Ġnorma tivos
Ġah ÃŃ
Ġref iera
centa je
Ġin cl
Ã¶ r
ad al
ĠS h
ion e
Ġacuer de
Ġtransvers al
ĠS RA
Ġru ido
Ġconcesion ario
divers idad
E sp
ĠExpl icar
ĠCat Ã¡logo
ue va
Ã¡ndo los
ĠV in
ĠsatÃ©l ite
Ġcompr as
ĠV ia
te lar
ĠSan ciones
ĠMar ino
Ġdecidi rÃ¡
Ġa sp
ĠCo un
Ġfun da
ĠB AN
Ġâī ¤
Ġinvol uc
ĠConsi dera
CEP TO
Ġex hor
ĠE dicto
ĠAr tÃŃculos
Ġestuvier an
P M
Y AN
tur almente
Ġse p
W G
Ġpro tector
ĠAdu anas
Ġre to
Ġal tas
Ġcontribu yen
Ġsu ya
g Ã³
IC UL
Ġadmiti do
Ġacep ta
ĠAyunta mientos
k ina
Ġsosten ibles
Ġcontin ente
CE DEN
ĠConserv aciÃ³n
v ase
Ġorganiz ativa
Ġconten drÃ¡
Ġprogres iva
ĠPubl icar
Ġdestin en
ĠMedi terrÃ¡neo
Ġol vid
Ġsacri ficio
pi eza
Ġv esti
Ġx enofobia
ĠSec ciones
Ġpotenci ar
duci do
Ġafili ados
inclu idos
Ġa ti
Ġanaliz ando
ĠOPER ACIONES
T ADA
ĠFal tas
Ġprev ea
Ġactu alizado
C a
Ġempe zar
Ġpuer tas
l ÃŃn
Ġro m
Ġconlle va
Ġsimpl ificaciÃ³n
Ġconceder se
Ġfach ada
Ġjusti fiquen
ij ing
Ġperten ecen
ĠU zbekistÃ¡n
Ġafec taciÃ³n
der ÃŃa
ĠN eces
Ġaument ando
ĠJer usal
Ġamor tiz
h ara
Ġenc uesta
ES OR
Ġimpor tados
Ġcondicion ada
k er
ĠEMPRES AS
Ġcons istentes
ĠV arios
ĠJuz gados
Ġacus ados
ĠPRE VIA
c ra
l ler
ĠDirec tores
20 5
ĠF OR
Ã¡n dez
Ġpresent ara
Ġtrasl ados
Ġan ex
Ġins crito
Ġcons istir
Ġus tedes
ier os
ĠautomÃ¡ tico
Ġcredi ticia
Ġpro me
ĠReal izaciÃ³n
Ġhue vos
Ġhall en
Ġis la
ĠMA XI
" ).
Ġ13 8
is tal
Ġtitul aciones
Ġpatrocin adores
Ġcu enca
tera tura
Ġpos tal
Ġcon fecciÃ³n
ĠmÃ© dicas
ÃŃfer os
Ġun e
Ġrepar aciones
o fici
Ġrevis ada
Ġgarantiz ados
Ġrespe ten
ĠUNIVERS IDAD
ĠU SO
Ġincompati bles
Ġacci den
ĠSindic al
I ES
Ġsens or
Ġcon val
de res
ĠA dap
Ġindic arse
Ġmi xta
iden cias
A E
Ġmu tual
ĠD ada
ĠCa pacidad
ĠD en
ĠIMPOR TE
Ġhomog ene
cin co
ĠAcredi taciÃ³n
Ġtempran a
ĠF o
ĠmecÃ¡n icos
ĠMED IDAS
Ġ[ âĢ¦
ĠC Ã¡l
ra tos
Ġsubsidi o
Reg lamento
Ġf ide
BIL IDAD
Ġdesfav or
ĠProces os
ĠPÃ¡r rafo
Ġirregular idades
Ġcre ada
Ġnoven a
Ġbille tes
Ġaver ÃŃas
ĠP ed
C h
Ġgrad ual
Ġevac u
ĠDe ben
Ġprofes or
Ġtom adas
l ada
10 7
ĠIN VER
Ġem an
e tan
Ġsobres e
ĠjurÃŃdic amente
Ġmanifes taciÃ³n
ĠComision ada
ĠA spec
ĠEsp er
ener aciÃ³n
ĠMon ts
11 5
Ġllev adas
ĠMATERI AS
ĠDocum entados
ĠS uelo
bi os
ĠO s
ara go
Ġinterpre tar
Ġsopor tadas
T ALES
ĠEsp ec
Ġrec tor
Ġperfil es
ĠP sic
Ġter cio
Ġextra cto
Ġda Ã±
ĠGu ÃŃa
ĠSÃŃr vanse
4 80
Ġelectr om
Ġprevisi ble
eder os
Ġquin quen
it s
ti entes
Ġoc urrido
Ġco bre
ĠmetÃ¡l ico
Ġimplic ados
ĠCEN TRO
Ġsec o
ĠENTR ADA
ĠS ÃŃ
Ġcap r
ĠN am
ĠRec a
les a
Ġautor a
ĠESTUDI OS
Ġmanten gan
Ġres ca
Ġfirm es
Ġrefier an
Ġne u
ĠINFORM E
Ġjustific ados
Ġauto liquidaciÃ³n
ĠOB RAS
Ġcompren derÃ¡
Ġjun tas
Ġconcentra ciones
Ġafirm aciÃ³n
ens as
ĠFran ces
p io
Ġfarma cia
ĠSolici tud
Ġllev ando
ĠefectÃº an
ĠOB TEN
ĠBoliv ia
Ġproporcion arÃ¡
vin os
Ġfacilit ado
Ġresta blecer
i ada
ĠNic aragua
Ġd adas
ĠSEGUN DA
ĠestratÃ©g icos
Ġconsidera bles
ĠO TRA
ĠCuar ta
pi dez
hi ri
Ġminis teriales
Ġgol pe
Ġk W
p icas
Ġl len
TI S
ĠFran cis
Ġdisposi tiva
ĠcontinÃº e
Ġcal iente
ĠPatr onato
ĠG RAN
IL I
ĠCEN TR
Ġâĸ «
Ġconcer tado
Ġ ]
ĠCir cular
Ġexces iva
Ġres tos
ĠAc ceso
ĠÃ¡r bi
Ġrecop ilaciÃ³n
7 50
arago za
B AN
pÃ¡r r
Ġcomple tos
ĠSindic ales
ens es
ie te
ĠD ivers
EC A
Ġconven cional
Ġre bas
ĠHa ya
Ġinici arÃ¡
ĠCA PA
ĠEXPE DI
Ġ19 70
TAR IAS
Ġaconse ja
ĠF IGUR
Ġconstitu cionalidad
ĠO n
Ġcom ida
Ġ14 7
19 78
ĠCONSTITU CION
Ġreclam a
ĠA SE
ĠTen drÃ¡n
Ġcalific aciones
tr y
Ġcap tura
ĠSOCI E
Ã£ o
Ġprevent ivo
Ġac tores
ĠJerusal Ã©n
Ġsuper aciÃ³n
Ġcomprome ter
ĠAS IS
Ġher encia
Ġo le
Ġtom en
n ing
ĠEXC MA
ĠV ER
ar cas
Ġpose edores
T Ãī
Ġca bles
cer tidum
Ġline al
Ġpla ca
ĠAs ociaciones
ĠAt Ã³mica
Ġinf lam
Ġinscri tas
Ġalcan za
Ġgener ada
rac ciones
Ġsolici tadas
m ental
Ġrec al
ĠNo tas
Ġmone taria
Ġ19 72
Ġdiscapaci tados
ĠPe Ã³n
Ġhum edad
ĠTen go
ĠrÃº brica
Ġbon ificaciÃ³n
f al
ĠFA O
ĠX XI
Ġcoleg ios
Ġelev ar
Ġdirec ciones
Ġcuadr ados
ĠSan itarios
Ġferrovi ario
S u
ĠCUMPL IMIENTO
Ġma trimon
Ġacces os
ĠBe ijing
Ġproduc tiva
Ġdescu ento
tic le
ĠG E
ĠGradu ado
Ä ĩ
Ġcan on
br icas
ĠConse jos
Ġsubsidi arios
Ġgra tificaciones
ĠTanz anÃŃa
Ġafec tarÃ¡
Ġtrien ios
tera pia
ĠConsol idaciÃ³n
Ġdesc endientes
ĠSEÃĳ AL
mos f
ĠG lo
ĠD u
Ġpartici pe
ĠCEN TROS
ĠGES TION
cl oro
Ġconven ido
Ġ20 20
ĠPlata forma
Ġexamin e
ĠREC ONO
Ġbol sa
Ġdeven gados
Ġpedi dos
Ġconcier ne
20 6
Ġfij as
ĠOper aciÃ³n
ĠEx cep
Ġop cionalmente
Ġne utr
Ġfa una
Ġra pidez
ĠAgr up
d ares
Ġmo dos
Ġdetermin Ã³
Ġf la
lÃ¡n tico
Ġv idas
Ġdesign adas
og ÃŃa
Ġreligios a
Ġvia ble
ĠConduc tor
Ġdiplom Ã¡tica
Ġpercib idos
Ġreno v
ĠDIS TIN
l d
ĠFinanci ero
ĠDE SE
Ġfa x
ĠMarÃŃti ma
ĠO tra
f os
Ġconsecu tivos
Ġperten encia
Ġ19 73
Ġme teor
Ġr Ãºs
Ġcontinu ado
Ġimpres os
ĠS ar
Ġpas os
Ġenorm e
Ġremuner aciones
Ġestric ta
D enominaciÃ³n
ĠMATERI AL
ĠP osiciÃ³n
Ġmacro econÃ³m
TUR AS
Ġrecar go
ter ÃŃas
Ġsuel en
Ġdi d
Ġconf iere
ĠRe ducciÃ³n
ĠÃ©tn icas
Ġinf ra
Ġdemand ante
Ġpropa gaciÃ³n
Ġar res
Ġparticipar on
Ġizquier da
Ġinterlocu tores
pl icaciÃ³n
Ġsal ir
Ã© rez
Ġn adie
ĠB ra
ĠPAR TIC
ĠC RI
Ġsuper a
a y
ĠsimultÃ¡n ea
Ġrec tores
Ġejerci tar
ĠIn vita
ĠHo y
ĠhÃŃ dr
t te
ĠDe p
Ġne tos
ĠG Ã©n
h ol
tori edad
m id
di eron
ĠDES P
g ulares
N OS
ol ina
Ġrepresenta tivo
Ġmotiv aciÃ³n
MP A
Ġrec ol
Ġ19 67
Ġhorm ig
Ġni trÃ³geno
Ġproporcion e
ĠVer ificaciÃ³n
Ġdo Ã±a
ec ÃŃa
ĠES TAS
Ġci en
ĠMAR ZO
ĠInter centros
Ġalter ar
Ġinv asiÃ³n
Ġesc asa
Ġol iva
Ġtelem Ã¡tica
ĠSOLICI TUD
ĠP el
ĠPre cios
ci no
Ġdef ensores
Ġsolu cionar
Ã Ł
ĠSeÃ± ala
Ġemb ri
Ġneg ativamente
ĠO CH
Ġminis terios
Ġinflu ir
issa u
Ġidentific ando
Ġcompeti tiva
ĠB ach
pe cial
Ġneces itamos
d Ãł
Ġtras cendencia
ĠC IV
Ġcalcul a
Ġc ho
TEN TA
ĠTERRI TORI
Ġb orr
IN F
ec encia
Ġemple os
Ġalterna tivos
Ġver de
ĠPar tido
Ġfacilit ando
Ġcau telares
Ġm Ãºsica
ĠI ES
ĠacompaÃ± ados
Ġperteneci ente
Ġconstitu idos
Ġdig itales
Ġtal ib
Ġconver tirse
Ġpor ciÃ³n
Ġsir ve
Ġc Ã¡maras
Ġpubl ici
Ġina cep
Ġin spir
Ġexcep tu
Ġarm amentos
Ġentre garÃ¡
Ġmad res
ĠH ID
Ġenca be
ĠAS UN
Ġdesap ariciÃ³n
Ã¡n ica
Ġpros per
ĠSe x
Ġqued Ã³
Ġdesarroll arÃ¡
Ġadap tado
ĠQ atar
Ġinca u
Ġ13 7
ĠIN VES
Ġun itario
Ġfirm ada
Ġalter aciones
E E
Ġpecul iar
Ġcontribu irÃ¡
Ġrein cidencia
Ġra tificar
ĠReserv a
ĠTAMB IEN
c y
Ġrepresent en
ĠSE AN
ĠClÃ¡us ula
ĠS Ã¡
ĠdomÃ©s ticos
ĠCAN TIDAD
Ġdi ag
ĠhistÃ³r icos
ĠCom arca
ĠINTR OD
ĠCorpor aciones
40 2
Ġbru tas
Ġgener ado
Ġhabr ÃŃan
ĠcÃ¡r cel
Ġdispon go
ĠCAR GO
ĠDic tamen
vi ado
ĠPARRA FO
Ġaj enos
Ġcent ra
ĠPre mio
ĠO f
ĠlegÃŃti mos
IN G
ĠNe w
Ġcontra partida
Ġadop tan
Ġesta bilizaciÃ³n
Ġinter ac
ĠS iempre
ĠTa bl
ĠBa h
ĠOB S
Ġalterna tivo
ambi que
Ġindividu os
ĠSel ec
Ġaj enas
T ADAS
Ġg oce
Ġliqui dez
ĠU L
P J
ĠAd hesiÃ³n
Ġabor da
ĠAn exos
Ġ080 5
Ġtrabaj a
ĠgrÃ¡fic a
Ġagra v
IS MOS
Ġcontrol ada
Ġterror ista
tific a
Ġdid Ã¡c
DOS E
Ġfia bilidad
ĠJama ica
Ġin certidum
ĠSuper ficie
Ġconver tido
Ġsolici tados
Ġcolabor adoras
Ġf ech
Ġreconoci endo
Ġtarje tas
Ġesencial mente
Ġinform Ã¡ticas
Ġremiti Ã³
ĠBale ares
ĠVi ol
cul tural
V AR
ĠH ol
Ġnov enta
Ġdemar caciÃ³n
Ġv ienen
Ġpe dag
Ġmez cl
ĠOC DE
ĠsintÃ© ticas
ĠMER CAN
ĠN om
ĠINF ER
ĠAdo p
. ".
Ġpes cado
ĠO cup
Ġs Ã³
Ġerr Ã³n
ĠCam erÃºn
te xto
ĠIn tel
Ġpasa porte
Ġes cen
ĠContra to
ĠAU TOR
ICI ÃĵN
22 2
Ġinsp ectores
z ambique
Ġrefuer zo
Ġas al
Ġtra zado
Ġconduc ente
Ġprovin ciales
ĠHor ario
Ġfal se
Ġgen ocidio
r um
Ġconce b
Ġ2 10
tur ado
ari ana
Ġmovil izar
ĠC asa
IV A
g ibles
Ġrepresent ar
Ġarmon izar
Ġinter institucional
ĠactÃº en
Ġago tado
Ġopon gan
Ġneg ocia
Ġdon aciÃ³n
M ar
Ġbar cos
Ġ irÃ¡n
Ġ za
Ġrespal do
ĠProfes or
Ġh ol
ĠSUB S
Ġinvit Ã³
ca p
Ġdoc encia
Ġg ente
Ġlogr ados
Ġorganiz ados
so bre
ĠatmÃ³s fera
tr i
Ġos tenta
ĠPar que
Ġcat Ã¡logo
Ġfe deraciones
Ġrecep tores
Ġpro yecciÃ³n
Ġblo ques
s ul
t her
Ġasign aciones
Ġespecific aciÃ³n
ht m
am Ã¡
Ġcom entario
ĠLa w
Ġenv ÃŃos
ĠF aso
ĠH ar
ĠJ E
ĠPARTI R
ĠVie t
de dores
ĠPro poner
Ġ19 68
ĠdesempeÃ± ado
k u
Ġm ala
Ġestatu tario
ĠfarmacÃ©u ticos
inis tro
ĠsÃŃn tesis
ĠM UN
Ġpres crito
Ġincendi o
ĠB O
ĠRES PON
Ġregistr adas
ĠlegÃŃti mo
C OR
Ġcuanti tativos
Ġexamin arse
Ġentr adas
Ġfrecu encias
Ġilum inaciÃ³n
Ġciudad ana
ĠMINISTR A
Ã ½
Ġreflej an
Ġrazona blemente
Ġdesta cÃ³
ĠTen emos
Ġob tiene
ĠT RE
ĠAspec tos
ĠT Ã©r
Ġinterp uso
ĠINFER IOR
ĠTr am
Ã©n ico
ĠEl Ã©ctr
Ġcr ÃŃa
Ġclasific adas
Ġalmacen es
ĠZ a
ti pos
ĠÃ³p tica
igh ts
Ġ| (
ĠE D
ĠD I
ent adas
Ġllam adas
ĠV ir
Ġacus aciÃ³n
Ġpersonal mente
Ġmani pul
Ġacu icultura
1 30
ĠEx pedi
Ġ13 73
Ġas istentes
Ġacord adas
Ġcoordin ador
z ono
PES C
) /
am an
ĠINTERN ACIONAL
ĠA T
Ġca torce
util izaciÃ³n
ĠD ia
de a
Ġespecial izadas
Ġaum entos
Ġimpon ibles
Ġcurs ar
Ġdespro por
Ġdestin ar
ĠIn versiÃ³n
Ġcaracter es
Ġcomer ci
Ġdetall adas
Ġing redi
ĠFAB R
ĠAEA T
Ġsuscri bir
ĠProvin cia
Ġimpugn ado
Ġhor aria
ĠMo ham
ĠC ic
Ġevent ualmente
Ġflo ta
Ã¡ lez
Ġex ijan
ĠReg las
ĠDEFIN I
Ġin du
Ġpor men
ĠF NU
ĠPartici par
ĠPA TR
ĠDefin iciones
ĠInstrum entos
Ġmundial izaciÃ³n
Ġ. "
EN DO
ĠRESOLU CION
Ġrecurr ida
ter es
Ġradio elÃ©ctr
Ġperfec tamente
v era
Ġsimpl es
Ġcam inos
cion a
Ġcomp uta
ĠF IL
Ġfrecu entes
Ġcombusti Ã³n
is e
ĠhistÃ³r ica
ĠDA TOS
ĠK ar
d ur
Ġpubl ica
aliz adas
Ġpue do
ĠSE PTI
Ġ16 1
Ġpatr Ã³n
Ġmater na
Ġas ocia
Ġresar cimiento
f un
ĠacompaÃ± adas
g i
Ġmatric ulaciÃ³n
ici al
Ġper dido
ĠQu ÃŃmica
Ġendeud amiento
ĠE R
ĠpolÃŃ m
ĠING L
Ġhuman as
ĠOfici nas
Ġexpl oraciÃ³n
an y
Ġdiscrep ancias
1 60
dr as
Ġincent ivo
. /
ĠZ aragoza
Ġinteroper abilidad
seg Ãºn
v im
ĠAd quisi
TI O
Å ¼
Ġfe ha
ari l
ĠCons ta
ĠA IR
Ġpre ci
Ġpromo viendo
Ġencamin ados
Ġc he
Ġ q
ĠC rim
ĠP ri
ĠProfes ores
ĠV an
ĠDeber Ã¡n
am ar
ĠV IS
Â» ),
CON F
Ġ14 3
Ġat mosf
Ġci ster
en ciales
ĠP ese
ĠObserv ando
Ġcarb Ã³n
Ġintermedi o
tar ÃŃas
TA MENTE
ĠSU JE
Ġsupon drÃ¡
a Ã±os
Ġexisti endo
Ġmor ales
ĠpacÃŃfic os
Î ®
ĠÃįn dice
Ġinc urrido
Ġcin emato
ĠA J
em pres
ĠGonz Ã¡lez
ond uras
U DA
ĠidÃ©n tica
ĠVE IN
ĠN ucle
Ġo este
Ġe mi
ĠPuer tos
Å Ľ
ĠEN SA
Ġaf gan
Ġproteg ido
ĠPer io
Ġconcur re
Ġ15 5
ĠG U
Ġci tar
b in
Ġent ero
cur io
Ġexcep cionalmente
iro bi
Ã¡ndo le
Ġpros eguir
ĠRE D
II F
me d
Ã¤ n
Ġus ar
Ġinvoluc r
M R
Ġinter vin
Ġhos til
Ġsin erg
Ġ19 74
Ġdesplaz adas
ĠU F
Ġher ederos
Ġtrans mite
Ġin al
Ġ7 00
ĠMedi cina
Ġconver tir
Ġsindica to
3 50
EN SA
Ġvisi ble
ĠdesempeÃ± e
Ġmon tes
Ġgener a
ĠD ON
ĠG eo
Ġcru cial
Ġbru tos
ĠP T
Ġdepor tistas
Ġsobrese imiento
ar ta
Ġn aciÃ³n
Ġdi arias
Ġrecha zar
2 20
ĠDe cisiones
ami bia
Ġdestin os
el les
ĠSE TENTA
in de
ĠES TRUC
ĠINVES TIG
Ġven drÃ¡
ĠA ten
Ġderiv arse
ĠsistemÃ¡ ticamente
Ġm ero
ĠDEP OSI
Ġcual ificaciones
Ġsecund ario
Ġcent ÃŃmetros
Ġdese an
Ġsens ibles
Ġsometer Ã¡
Ġelev aciÃ³n
ent Ã³
ĠSu je
del l
Ġej Ã©rcito
Ġbi olÃ³gicos
Ġconcur ra
er en
ĠEN ERG
Ġpublic ados
to grafÃŃa
Ġvel arÃ¡n
Ġcomp uls
Ã©rcol es
Ġha bla
Ġincorpor en
Ġdi am
Ġservid um
ĠC Z
Ġjue ves
Ġoper ativas
ĠUn ida
ĠSecre tarios
ĠJUN IO
Ġb ra
CI DAD
Ġmos tr
Ð º
. Â°
ĠAu t
ific a
us as
I ÃĵN
Ġcompeti ciones
dre mos
CI B
ĠZimbab we
Ġajus ten
Ġval idaciÃ³n
Ġcandida turas
der ÃŃas
Ġprohib ida
Ġre valor
TAR IOS
ĠBur kina
Ġg ir
Ġorient adas
Ġmejor ado
Ġcompens aciones
ĠPRESUP UES
Ġconl lev
3 14
ter nidad
ĠCategor ÃŃas
ĠL iga
Ġremiti dos
ĠBi bliotec
T ON
- [
d amente
ĠSuc esiones
ĠZ ambia
form idad
ĠF ER
Ġdin am
p osiciones
Ġradio difusiÃ³n
ĠCREDI TOS
Ġpronunci arse
Ġagr ado
ĠBIEN ES
ĠRes umen
i w
ar ra
AL IDAD
Ġrecip iente
tu a
ĠAutor idades
ĠE MB
Ġcal zado
V IE
11 8
Ġsatisfac toria
ĠPUBL ICA
Ġpla gu
inos as
Ġdomin gos
Ġreca ud
gues a
m p
Ġsuscri tos
Ġem bal
01 3
Ġtur ÃŃstica
Ġingen ierÃŃa
te za
Ġom isiones
Ġmanifes tÃ³
Ġintermedi os
u en
Ġconstruc tivo
Ġelev ados
Ġag il
Ġampli ado
ĠMuc hos
ĠY emen
TIFIC ACION
DI CE
an e
Ġver te
Ġ &
Ġpor cent
Ġcar g
Ġcul turas
Ġnombr amientos
Ġindirec tos
ĠEnfer me
ĠCOMPETEN CIAS
ĠUn ited
ĠC Ã¡maras
Ġmon to
qu ÃŃes
Ġasc endi
ĠCONTI NU
ĠLEG IS
Ġdi man
Ġdemos tr
ĠApar tado
ĠNa irobi
RE G
Ġ '
ter ritor
Ġadquier e
EL C
ĠquÃŃm ico
ĠDon aciones
par tidas
ĠB I
ĠAn al
Ġcelebr arÃ¡n
ĠacompaÃ± amiento
Ġt in
ir me
Ġprior itaria
Ġdes viaciÃ³n
ĠdomÃ©s tica
Ġexpres aron
Ġdesmovil izaciÃ³n
CO P
Ġh il
ĠInfraestruc turas
ĠRes oluciones
Ġdepos itario
ada gas
ĠCuo ta
0 80
ĠCÃ¡l culo
Ġemple ador
áĥ Ķ
Ġpose an
Ġa bajo
Ġcale facciÃ³n
ĠorgÃ¡n icas
ĠN IC
ĠPrincip ales
Ġreingres o
ĠInc rem
v Ã¡l
ĠR AD
der amiento
ĠOrig en
1 40
Ġpas ando
Ġfis calidad
Ġc Ã¡
Ġocas ional
Ġ17 5
ser ciÃ³n
IL O
TERI OS
Ġmens ualmente
Ġrecon ozca
Ġreci bieron
pro grama
Ġreiter ar
Ġ ---
Ġ irÃ¡
Ġmejor ando
Ġcul tiv
Ġjurisdic cionales
AD E
ĠPan amÃ¡
h all
Ä Ĺ
ĠÎ ¼
ĠCA TAL
ĠT UR
ĠJun tas
in form
ER AS
ĠRe tribuciones
Ġcal les
Ġinform ada
ĠMo zambique
gen os
ĠE P
Ġasum idos
Ġcos tum
f ol
CC C
por tes
Ġdedic ados
Ãĳ O
V al
Ġpronunci amiento
ĠestÃ¡n dares
Ġin ac
Ġretribu idas
j unta
Ġa tras
Ġmi xto
ĠAdi cionalmente
der n
Ġsubs igui
Ġar que
velop ment
201 9
Ġdesfavora ble
iz arse
Ġgr asa
Ġtur ÃŃsticos
cedi do
Ġindefin ido
Ġmul tas
Ġ________________ ________
h l
anti a
ĠbÃ¡s icamente
ter na
Ġan alizado
ĠPERSON AS
Ġre organizaciÃ³n
Ġsal idas
ĠInstruc tor
Ġanticip ado
Ġsurg ir
Ġfi estas
ĠCOMPE TENCIA
Ġprec a
adagas car
pre cio
Ġdes na
ĠF ores
Ġlleg ue
ĠseÃ±al arse
ĠMan ual
temÃ¡ ticas
Ġle ve
ĠTrans iciÃ³n
pa c
Ġven der
ĠEjer ci
ĠEs o
iz antes
u se
Ġ15 2
ĠO TRO
ĠEm erg
Ġrepatr iaciÃ³n
Ġdes en
Ġsec uelas
Ġaccion istas
F OR
Ġconsegu ido
Ġsubray ar
Ġj ardin
Ġasis tencial
Ġmigra torios
ĠRib era
Ġidentific ados
M N
ĠL L
ĠSen ado
ÃŃ metro
ĠÃ©tn ico
ĠJur is
ĠB us
Ġu va
Ġesper o
minis terial
ĠP in
Ġmotiv ado
ĠGran ada
Ġintergu bernamental
Ġdes ertificaciÃ³n
Ġpla cas
di l
D L
Ġo ÃŃdo
Ġadu anas
ĠquirÃºr gica
Ġcomen zarÃ¡
Ġhabl ando
ĠRe v
ĠM Hz
i ri
Ġban das
Ġganader ÃŃa
ĠDISPON GO
Ġobliga torios
tÃŃ m
ĠÃ©po ca
Ġmo to
Ġ ).
Ġper der
ĠAlma c
ti ble
ĠAN AL
Ġpres tada
Ġconsign aciÃ³n
Ġin tegra
Ġmanifes tar
Ġ14 6
ĠASUN TOS
CEL ONA
B issau
ĠPes etas
Ġdeba tir
ĠComis aria
Ġconven ientes
ĠMon te
ULAR ES
Ġlongitud inal
ĠPar lam
tra c
Ġ21 7
O b
Ġintim idad
ĠPRO MO
ĠCompe tencias
Ġneum Ã¡ticos
ti ma
Ġindi s
ĠPRE CI
TAN CIA
ĠObserv a
Ġpos tura
h r
ĠU K
Ġexperim ental
Ġcar tÃ³n
Ġsens ibilidad
2 10
Ġcon tarÃ¡
Ġconci enciaciÃ³n
Ġev entos
Ġdi eron
ĠH ong
Ġpromue ve
cu ando
ĠPUE DE
ĠIn g
tent ri
ĠCentr ales
ĠMon gol
ĠINF ORMA
Ġev olu
Ġb r
ĠDel incu
Ã© ticamente
Ġintercambi ar
Ġdivis iones
TA MENTO
Ġnombr ar
Ġdirig irse
s te
Ġinici a
ĠA mpl
ic ante
Ġaquel lo
re y
01 5
Ġbas an
Ġac orde
ĠDisposi tivo
tor ado
hiri ya
Ġdi a
ĠdÃ© cima
Ġcar bur
ĠExplo taciÃ³n
Ġescal as
Ã¡ ci
Ġtempor ada
Ġprop Ã³sitos
ĠCooper ativa
Ġtex til
Ġdi arios
ĠPR UE
Ġperten ezcan
Ġconv iv
Ġcubier to
Ã³lo gos
e u
Ġcauc e
ĠConoci miento
ĠPe que
ĠH onduras
ĠAC NUDH
Ġram as
Ġoper an
Ġcel e
Ġem po
Ġconstitu tivos
Ġtransfer ir
z y
Ġsug iere
Ġdeclar e
Ġabandon ar
ĠARTIC ULOS
Ġhici era
Ġinform ados
Ġfili ales
ĠmÃºlti ple
Q ue
b aciones
Ã³l ica
Ġ15 6
Ġacep tada
ĠMongol ia
Ġson ido
y era
ĠDE RI
ÃŃ f
Ġapar camiento
l om
m ante
ĠBAR CELONA
Ġtesor erÃŃa
v io
11 6
Ġa se
Ġbanc arias
br aciÃ³n
Ġrestitu ciones
on izaciÃ³n
ĠP arÃ¡
Ġreten er
h ex
Ġprior itarios
Ġaprovech amientos
ĠD IE
la ga
ĠLabor atorio
w n
Ġes tÃŃm
UL AS
ĠaÃ© reos
ĠÎ ±
ĠME TO
ĠREGISTR O
Ġh ilados
Ġsa be
ĠPue den
ĠREG UL
Ġdisc ursos
ĠN amibia
ĠA DE
Ġtrip ulaciÃ³n
30 7
Ġobtener se
Ġrecomend ado
Ġdesign e
Ġtrim estr
Ġperju diciales
Ġconduc entes
Ġpres unta
Ġrec ta
Ġbon ificaciones
g ÃŃa
Ġfabric ados
rec e
vent ion
ĠC PA
Ġdetal la
ĠDeb ido
CO M
Ġarrenda tario
ĠCar b
Ġdenomin ados
Ġcalific ado
Ġinstrum ental
ĠlingÃ¼ ÃŃstica
ĠAm eric
ecomun icaciÃ³n
ĠCOMER CIO
Ġcap taciÃ³n
Ġlimit arse
ke ting
ĠMa es
Ġajust arÃ¡n
ĠInf racciones
Å ¾
Ġorganiz Ã³
i des
0 50
ĠP Ã©r
Ġplan tillas
Ġpresu mi
Ġconcre ciÃ³n
c almente
Ġacer vo
ĠEsper amos
ĠA DICION
Ġpromul gaciÃ³n
tr ales
Ġcamp amentos
Ġele va
f ÃŃa
Ġas amblea
Ġorden ada
Ġac or
Ġcomple jas
Ġso dio
ĠCh ad
Com itÃ©
11 7
bi era
Ġdiscrep ancia
Ġdivi dir
e jos
ĠForm a
Î Ń
Ġcu enten
d ante
vici os
Ġlog ÃŃstica
pro duc
ĠG L
ĠTIEN E
Ġfr ÃŃo
Ġdese quil
Ġproporcion an
Ġcompar tida
Ġtabl Ã³n
Ġpre domin
i u
F a
Ġpon iendo
IL LA
Ġces iones
Ġadecu ar
Ġm antequilla
Ġcorpor al
ĠDes ignaciÃ³n
Ġju icios
Ġbu eno
Ġmiti gaciÃ³n
Ġpractic ada
Ġadop ta
a fricana
Ġatribu ir
Ġh em
ĠTRANS FER
Ġinform arÃ¡n
1 80
Ġsancion ar
ĠEsto y
al th
p Ã³n
ĠFa x
ĠsÃ³l ida
vis ion
Ġa eronÃ¡u
Ġemiti da
Ġsubreg ional
Ġna cido
ĠREG ION
ĠM adagascar
on ales
Ġcomplem entar
ĠDes arrol
Ġp ed
ĠR ights
juici amiento
ĠV ocales
ivers ario
ar o
Ġesque ma
Ġmer ece
ĠFedera tiva
Ġ15 7
Ġejer cen
Ġformul aron
ĠVEH IC
Ġfrances a
Ġarancel ario
Ġmanu tenciÃ³n
ĠquirÃºr g
tur ados
ĠPUN TO
Ġsolici tan
ĠA CI
ĠPA GO
Ġins taur
ĠForm ul
ĠDIGITOUno DIGITOÂº
ĠP C
Ġinter de
Ġcual ificada
Ġlan zamiento
ĠsÃ¡ bado
Ġprohibi ciones
ĠEstable cimiento
Ġtrans bor
Ġhaber es
46 8
Ġincorpor an
Ġhosp itales
ar re
Ġimplem entaciÃ³n
Ġho tel
ĠRector ado
Ġges tores
ĠNingun a
Ġre p
Ġparticip Ã³
ĠP osi
Ġcau telar
Ġemple ada
ĠArti culo
Ġr os
ĠN um
ter c
Ġres al
Ġre duc
Ġpar ed
ĠMo vil
ĠR om
Ġmar ina
ĠES TI
Ġllev ada
Ġos t
Ġrein versiÃ³n
Ġavan zado
on s
Ġenfr enta
ĠdomÃ©s tico
hid ra
Ġp ene
car a
Ġponder aciÃ³n
ĠF oto
americ ana
Ġtermin ales
ĠDIGITO a
Ġsi tios
Ġdeducir se
ĠE conom
Ġri ego
ĠAt lÃ¡ntico
I MA
Ġp iso
Ġpor no
Ġtransc ur
Ġencom ien
Ġdis olv
Ġ ib
Ġdirec tora
Ġconsidera ba
Ġpar ques
Ġautor ice
Ġcons istirÃ¡
m ad
TR U
ĠAMB ITO
ent arÃ¡n
Ġcon oce
M V
h en
gel l
ĠAdministr ador
ĠReaf irma
ĠEn juiciamiento
Ġdeneg ar
ĠB CN
Ġentendi endo
S al
ic om
ĠLA BOR
Ġl Ã³gico
Ġmedi cina
ĠTer cer
Ġretribu idos
Ġregistr ar
Ġaleg ados
iv idad
ĠMO DE
y un
ĠD NI
ĠACTIV IDAD
ĠDo ha
ĠDEPAR TAMENTO
Ã¤ r
ĠC DIGITO
Ġenvi arÃ¡
Ġpa ta
11 4
ĠECONOMI A
Ġclar as
Ġpar ecen
Ġresul tas
Ġus ados
ĠF ron
Ġreflex iÃ³n
ĠColec tivos
Ġdeber ÃŃamos
cum pl
D P
Ġcom eter
ĠAÃĳ OS
Ġe cu
Ġli tros
yi kistÃ¡n
ĠPara guay
Ġavan zada
Ġestipul ado
Ġine quÃŃ
Ġcomprendi endo
Ġve cin
Ġgeo grÃ¡fico
Ġemiti rÃ¡
Ġpropi amente
Ġpres tador
Ġbi olÃ³gicas
Ġapoy ando
Ġsustitu yen
Ġal ej
Ġal ude
Ġcompeti ciÃ³n
Ġrecre ativas
Ġdisminu ir
is tÃŃa
con trol
ĠTOD AS
ĠPERIO DO
40 7
Ġal cal
Ġvel arÃ¡
ĠA ELC
Ġintegr arse
Ġreclu tamiento
CES O
Ġverda dero
19 0
Ġpres untos
Ġ29 3
Ġinterpre tarse
Ġvent ilaciÃ³n
Ġsustanci ales
Ãº na
Ġso ca
ter r
ĠDomin icana
Ġencar go
Ġlo tes
Ġ18 2
ĠCA TEG
Ġ---------------------------------------------------------------- --
Ãģ N
ĠPortu aria
ĠProvis ional
ĠsubterrÃ¡n eas
Î Ħ
p ica
ĠEmi ratos
ĠINGL ÃīS
ÃŃcol as
ĠPer fil
Ġen Ã©rg
Ġex poner
Ġejecu tado
ĠD an
Ġprorro gado
val u
Ġesc ase
áĥ Ĳ
Ġs ta
Ġfal los
Ġcomprue ba
Ġfacil itaciÃ³n
Ġal zado
ĠResul tados
ĠPRE PAR
Ġselec cionar
Ġaus p
ĠC ha
Ġmaes tros
ĠINFORM ACION
Ġ19 0
graf ÃŃas
Ġcredi bilidad
Ġtra tan
ent ismo
Ġnutr iciÃ³n
Ġdero gado
ĠEfec tos
ĠEstra tÃ©g
ĠM F
s ub
Ġem pa
ĠBa ix
Ġsu cede
ĠP Ã©rez
Ġ19 71
Ġindeb ida
Ġsignifica tivamente
Ġcum bre
Ġdiag nos
Ġfinal ice
ĠCon viene
Ġocupar se
ĠSan itaria
ĠH istÃ³r
Ġconte m
ĠPOL I
ĠHUM ANOS
ĠIntegr aciÃ³n
Ġayunta miento
Ġri que
ĠEsp ero
ĠPUBL ICO
i bilidades
ĠB ENE
egu re
Ġor to
Ġc ÃŃr
Ġdero gada
ĠAca demia
Ġproduc tivos
Ġver tido
lan o
H Ã¡bitat
ĠMal ÃŃ
ĠAde lan
Ġauto p
Ġpaque te
ĠEmpl e
Ġdesestim ada
Ġcomunic ados
Ġconce da
Ġregistr al
Ġsal uda
Ġre qui
Ġincompati bilidad
presu pues
11 3
Ġdesglos e
ĠInter Ã©s
Ġb ole
ĠEX POR
AS E
ol iciÃ³n
MA M
ĠPER MAN
ĠGar anti
Ġintegr en
Ã³n icos
qu ÃŃmica
ĠG ARAN
ĠRec omen
Ġcompr ens
ĠGer encia
ĠRe dac
Ġdes ag
a zar
ĠRESPEC TO
Ġrealiz aron
Ġanomal ÃŃas
Ġestim en
AB OR
ĠAu dio
min aciÃ³n
Ġsub as
Ġesc la
ĠON CE
ĠESTA BL
y ana
Ġreligios os
ĠA E
Ġforzos o
P OL
Ġfund aciÃ³n
Ġenc uestas
ĠAn ual
Ġper if
Ġcelebr arse
antia go
ĠCom pon
am ina
Ġinver tir
ĠOM S
on io
ĠDIF ER
ĠDE MAS
Ġequilibr ada
ĠV O
ĠCentro africana
ĠactÃº an
Ã ª
Ġajust ado
Ġvis ados
ĠRES ID
lan a
ĠIN ICI
Ġreti ro
ĠOb ten
Ġestim ular
lan desa
Ġrepres ente
Ġ2 12
Ġesper amos
ĠC ier
ĠClas es
Ġre ex
em ento
15 6
Ġres pira
Ġequi tativo
A CI
Ġincent iv
N a
Ġn etas
Ġfal s
ĠFNU AP
Ġpresun tamente
Ġna cidos
Ġinmo biliario
Ġrestable cimiento
ĠEspeci fic
Ġresid ual
B ar
Ġaplaz amiento
Ġsalvaguar dia
Ġdisfru tarÃ¡n
Ġf os
Ġfundam enta
Ġcruc e
A F
Ġincorpor adas
Ġajust ada
on ar
Ġint entar
Ġfij arse
ĠilÃŃci tas
Ġcomple jos
ĠAgr ÃŃcola
utr iciÃ³n
Ġnorm alizados
ĠC S
Ġpermitir ÃŃa
H S
ar ts
Ġasal ari
Ġadi tivo
ĠTE MP
ĠCOMI TÃī
Ġ16 5
tr on
Ġdistribu idos
Ġsimpl ificado
is as
ĠTa yikistÃ¡n
Ġpubl ique
no c
ĠGra cias
Ġestim Ã³
Ã§ a
Ġtra tando
Ġaus encias
Ġb ul
ĠIN DE
um os
Ġcontra ÃŃdos
Ġreun irse
ĠPro cur
t adoras
Ġfrac ciones
ĠartÃŃs tico
Ġregul ares
Ġpres unto
j ado
ĠRE INO
Ġcon du
Ġas egure
Ġreduci rÃ¡
ĠC Ã³r
Ġrec tific
mil lones
ĠFACUL TAD
Ġacredi tadas
ĠC G
00 8
l ados
Ġformal idades
Ġcontra tistas
Ġla gun
Ġa venida
ĠTecn ologÃŃas
13 5
ĠAL GUN
Ġtur ÃŃstico
00 6
Ġfinanci adas
ĠPRESUP UESTO
y r
Ġe p
Ġindi visi
ĠInd ÃŃgenas
Ġdep uraciÃ³n
re in
Ġaudi tores
Ġcu ad
Ġdesc enso
Ġdiscipl inaria
ĠPER JU
Ġcuan tificaciÃ³n
c emos
ĠN IIF
Ġdisc urso
Ġsimpl ificar
Ġe co
Ġ18 4
re d
00 7
Ġfigur as
t z
it ariamente
ĠReconoci miento
Ġejerci do
ĠJUR ID
19 77
Ġh ambre
Ġbuen os
Ġcre encias
Ġcur va
ĠInm igraciÃ³n
ĠGlo bal
fr uc
Ġatribu ido
e ten
Ġ ido
Â» ).
Ġd ul
Ġgr amos
Ġpel ÃŃcula
ĠAs oci
Ġcontem porÃ¡n
A A
I ERA
Ġcerr ados
Ġbrin dar
Ġbi om
cul as
Ġso ftware
ĠmecÃ¡n ico
col onizaciÃ³n
Ġ( <
Ġp ista
ĠD om
Ġprepar aciones
Ġadquir idas
Ġhomolog ado
ĠESTABL EC
Ġproduc tivas
Ġsex os
Ġcoordin adores
f ÃŃs
12 3
Ġretras os
1 70
ĠAudi tores
Ġre clus
ĠEl ecciÃ³n
Ġperci be
I MO
Ġconcier to
p ra
Ġap uestas
Ġcomple tado
Ġlegitim idad
Ġsosten ido
trim estre
Ġveinti cinco
Ġin jer
ĠAs es
Ġparticip ada
ORM E
Ġuni lateral
ĠPer mÃŃ
Ġpose er
Ġre Ãºna
ĠT AS
k en
ĠMer cados
ĠDEP EN
Ġdi stal
Ġpermiti endo
Ġ16 6
Ġata Ã±e
vi esen
Ġpar alizaciÃ³n
ĠI mpl
b ina
Ġentien den
Ġni e
ĠEMPRES A
ĠOS SI
Ġrecomen dar
Ġplagu icidas
ĠCar los
Ġafirm Ã³
ĠfenÃ³m enos
Ġcons cientes
ĠPROGRA MA
Ġcauc ho
Ġretribu ido
Ġinici arse
ĠJama hiriya
Ġun ido
tÃº a
Ġaliment arios
ĠB l
Ġfalle cido
Ġor o
ĠC IE
p unto
Ġl Ã³gica
Ġantigu os
la h
Ġmon taÃ±a
ĠG i
Ġpe trol
k y
Ġpel ÃŃculas
Ġcom esti
Ġincrem entado
el lo
Ġejecu tivos
Ġsopor tado
Ġparlam entarios
Ġcontin gencia
Ġentre gado
Ġconven idos
Ġb uc
Ġtransfronter iza
do cum
P T
ĠCON O
ĠReglam entaciÃ³n
Ġcompar ecencia
Ġconv ino
ĠConse jeros
Ġrepar ar
ĠAnti gua
Ġsubs istema
Ġma ta
Ġcomen zÃ³
Ġinici e
Ġul teriores
ĠInsp ector
Ġprof undamente
ĠcrÃŃ ticas
ĠMej ora
vent or
ĠclÃŃn icos
ĠsÃ³l ido
UR A
rig or
Ġform almente
Ġf ibra
Ġcon cepciÃ³n
ĠFUNCION ARIOS
Ġmarg inal
ĠAb s
ĠAUTORIZ ACION
Ġdic ten
ĠORGAN OS
Ġalum brado
2 40
C ER
Ġdivers ificaciÃ³n
Ġescase z
ĠPa gos
ĠExpres a
sk i
Ġrestric tivas
Ġenerg Ã©ticos
ĠartÃŃs tica
Ġsalv amento
tr ito
Ġel ig
aliz a
ĠTo x
Ġbom bas
Ġrecorr ido
an s
vi amente
ĠâĤ¬ .
Ġminis tros
ĠPUBL ICACION
ĠAnti gÃ¼edad
til eno
ĠC urso
Ġlimit ados
Ġprocur arÃ¡
ĠESPE CIALES
Ġre iv
ĠEX CLU
Ġregular idad
Ġm ora
C ALES
Ġhubier en
den cial
Ġconoci dos
Ġparale lo
Ġla vado
ĠC lu
Ġampl ios
ĠAg entes
Ġtecn olÃ³gicas
dis cipl
Ġinter re
ĠPres taciones
di g
ĠS IEMP
v aca
Ġali anzas
01 1
ĠBen in
ĠAudio vis
ĠKir gu
ĠQu ÃŃm
Ġcoci na
Ġcentr ado
an al
ÃŃn as
Ġacord ados
Ġpro bado
Ġor adora
Ġinform ativo
k ing
ĠTRA VES
Ġarran que
ĠSIEMP RE
ĠCon ferencias
ren o
Ġenum eran
Ġcl Ã¡s
ĠMa qu
Ġamino Ã¡
can o
Ġsul f
ĠMuc has
25 3
S G
Ġfi el
ex enciÃ³n
ĠSE L
Ġpromue van
Ġpro tec
Ġencar ga
ĠEDUC ACION
Ġpas Ã³
al ias
ĠprÃ³x imas
Ġmetodo logÃŃas
Ġabon adas
Ġesque mas
ĠAnte proyecto
Ã³ leo
ĠAD U
Ġa br
Ġresca te
Ġan ejo
ĠA F
m ens
Ġimp ida
Y E
Ġinstitu to
ACION ALES
TA CIÃĵN
ĠEL ABOR
ISI TOS
Ġdistingu ir
Ġal tamente
ĠJ unto
Ġprof un
Ġpose en
e f
ĠA viaciÃ³n
ĠÃ¡ cidos
ti zar
Ġm am
Ġsub di
Ġconfirm ado
ĠSal Ã³n
ĠCondi ciÃ³n
Ġtra cciÃ³n
Ġtu b
ĠS port
Ġdepen derÃ¡
Ġdu re
Ġmultipl ic
Ġafili aciÃ³n
d Ã³
ĠM ala
Ġdesigu aldad
Ġtox icidad
Ġin esta
us k
Ġav ales
Ġnove dades
Ġasp ira
Ġperci ban
br imiento
Ġan iversario
ĠGar antÃŃas
ĠA ero
Ġtesti go
ĠexplÃŃci tamente
Ġprelim inares
o zcan
ĠH u
Ġprovis iones
ĠTit ulado
Ġdiecis Ã©is
Ġg rÃ¡fico
Ġdes lin
BR ERO
ĠEnseÃ± anzas
Ġex im
br ales
Ġconsign ados
Ġ15 8
áĥ ĺ
Ġgen Ã©rica
ĠD r
Ġpag ador
ĠMAY OR
Ġreci birÃ¡
Ġcontradic ciÃ³n
46 0000100
Ġtranspar entes
Ġobliga toriamente
is s
a a
Ã¡lo gos
Ġplata formas
ĠAB RIL
CEDEN TES
ĠA um
Ġprocedi do
en g
ĠEn te
ĠM ig
Ġreci cl
Ġ24 0
Ġd Ã©c
Ġpenitenci ario
Ġcalific ados
Ġesc uc
ĠD ecre
Ġexp uls
ĠFE BRERO
Ġper for
ĠINTEG R
ĠHidro grÃ¡fica
0 40
w ana
Ġacces ible
cion adas
ĠMEN CION
ĠI MA
ÃŃfic os
Ġapoy ado
Ġparti endo
tentri onal
ĠK ong
Ġcelebr en
Ġcompren da
Ġ16 9
Ġinici ados
Î¹ Îº
Ġt hat
Ġdesta cado
ĠORGAN ISMOS
ĠFr ente
ĠMecan ismo
j en
Ġr uso
Ġplur alidad
Ġa fi
ch ez
ĠRecono ce
ĠF P
Ġsustan tivos
Ãļ BLICA
Ġaum enta
Ġdero gadas
Ġen vejecimiento
ĠhÃŃdr icos
ĠS IDO
ie bre
Ġenerg ÃŃas
Ġm uro
Ã©r f
Ġaz ul
Ġcolec tivas
Ġproba bilidad
D os
Ġgener aciones
Ġmues tran
Ġdesign arÃ¡
n an
on i
ĠA SO
IP OS
ĠAL IMEN
Ġfacilit arÃ¡n
Ġclasific ado
Ġsubsidi os
Ġauxil ios
Ġpa gados
Ġdesigual dades
Ġl Ã¡
Ġdej ando
Ġcer teza
Ġgr adu
ĠCONTEN IDO
Ġ0 50
Ġoper ar
W P
ĠL IC
Ã¨ n
ĠF ich
b ando
Ġadher irse
ĠâĢ Ĵ
ĠHA YA
Ġun iones
Ġinstitu tos
Ġsubra yÃ³
ĠsÃ¡ bados
ĠREQU ISITOS
12 1
Ġexac tamente
Ġinst Ã³
ĠTribu tos
ĠCon junto
Ġcar encia
ĠCam po
Ġmes as
Ġreiter Ã³
S an
ĠInde mn
ĠCIV IL
Ġpas arÃ¡
ĠT DI
Ġprodu jeron
iz adores
Ġpres cin
14 9
i adas
Ġ15 1
ĠAN TES
es col
Ġpre ferencias
Ġinm unidad
Ã³d ro
Ġdistr itos
Ġto l
Ã¡n ico
ĠCer tificaciÃ³n
CEP CION
enci ado
Ġcontr arias
Ġarch iv
Ġadelan to
Ġrefrig eraciÃ³n
al quil
Ġcompuls ada
Ġpres os
Ġlater al
ĠD C
ĠComplem entos
60 3
TAN CIAS
ĠNue vo
n ie
Ġelabor ando
Ã³lo go
Ġusu fruc
Ġinscri ta
Ġarren damientos
Ġimpu tar
Ġten siones
ĠMO MENTO
Ġre le
Ã³g icamente
Ġpronunci ado
ĠCU A
Ġrecin to
ĠAÃ© rea
Ġhormig Ã³n
Ġdetall ados
Ã©r pre
Ġces ion
Ġcalcul ada
ond res
D RAN
ĠT IEMP
Ġpos tales
Ġres ide
ĠAc tuaciones
22 6
Ã¡r ma
IMI ENTOS
Ġcan cel
Ġin fecciÃ³n
Ġredac tar
Ġconvo cadas
ĠrecÃŃpro ca
Ġf rom
ĠAlim entos
ĠMEDI OS
ĠSO CIALES
Ġsatisfec hos
ĠInform ar
Ġo zono
ĠdiseÃ± ado
ti mos
ti a
Ġa genda
ĠV EN
Ġclar os
ĠJe an
Ġtip ologÃŃa
ĠCO OP
Ġjustific an
Ġcele bre
Ġex puesta
gen a
Ġespecific ada
pi ta
Ġconcier tos
Ġagr u
pl an
Ġpens ar
ic Ã³p
Ġflu ido
Ġaccesor ias
br Ã¡
Ġsec a
ĠFrancis co
ĠAD ECU
Ġpr Ã³tesis
Ġ5 50
Ġpre tens
T ra
Ġinvier no
ĠâĹ ı
Ġproporcion en
Ġdeten er
Ġentr ado
ĠUNIVER SI
j un
ĠPUBL ICAS
Ġenfr entan
ĠCa jas
t bol
ĠT rin
dor ra
Ġenvi Ã³
Ġtra yec
ĠF iduciario
ĠmetÃ¡l icos
Ġtonel ada
Ġagr ario
Ġdesper dicios
ĠNi Ã±os
FIC O
O GA
ĠCONSE J
Ġano taciÃ³n
Ġdiscapaci dades
er Ã¡n
Ġextra presupues
ĠEjerci cio
Ġtransmiti dos
ĠEx tran
ĠConsul tas
ĠX III
ĠD j
ĠF IR
ĠT AC
Ġsubro gaciÃ³n
Ġcl im
SI TIO
Ġdesvi aciones
3 15
ĠD roga
fec tos
it ania
ĠtÃ©cn icamente
Ġ15 4
Ġcomen zado
Ġgarantiz arÃ¡n
pÃ¡r rafo
cier to
Ġano taciones
Ġguar dar
IS TICAS
Ġartifici al
Ġmetodo l
Ġsue le
ĠBENE FICI
Ġalum na
ĠUtil izar
ĠIngen ieros
fon ÃŃa
Ġcombin ado
Ġimplic adas
ĠTabl as
ener o
Ġprovo cado
l id
ad ir
Ġdes h
ĠD IP
Ġviv ir
tre al
t ment
Ġsab emos
Ġmil lÃ³n
Ġconcer taciÃ³n
22 8
Ġconex iones
ĠZ onas
ĠEjer cer
Ġ17 3
Ġabar car
Ġregul arÃ¡
ĠCONS ECU
Ġcontra ÃŃdas
Ġbor de
am p
Ġprocedi Ã³
Ġman comun
clus iones
Ã©n dum
Ġsupl entes
Ġreserv ado
Ġ19 58
Ġdel ante
Ġpublic adas
ĠCooper ativas
Ġdivis as
Ġroman ÃŃes
ues o
par as
Ã¡ce os
Ġimponer se
t ter
tan ol
Ġinv itar
ĠSol o
Ġincertidum bre
ĠFor tal
Ġre dis
Ġunivers itarias
Ġaisl ada
amble as
ĠD IAS
ĠSC CL
f Ã©
Ġpon drÃ¡n
ĠINDUSTR I
ĠEx iste
ĠgrÃ¡fic os
ĠLu is
ion ar
1 19
ĠMIS MOS
Ġdisminu ido
Ġincum be
Ġha bilidades
Ġ28 0
ĠMul ti
Ġanfitr iÃ³n
ĠPor centaje
Ġ17 8
Ġad quiera
ing ton
ĠDEF ENSA
Ġman dos
Ġurban ÃŃsticos
Ġreiter adamente
y ar
ĠCos te
Ġespos a
Ġse quÃŃa
ĠS w
Ġcatal og
ĠCons um
la ce
di z
Ġredon de
ĠA V
a den
ĠU TM
Ġb asta
Ġagradecer ÃŃa
ĠReca udaciÃ³n
Ġre a
pre ci
4 50
Ġsol dadura
F C
Ġas unciÃ³n
Ġru tas
Ġin capaci
Ġapre mio
ta ts
Ġtrabaj adas
Ġpreserv aciÃ³n
ĠHA YAN
Ã¡ndo las
Ġsacri fic
ĠNE GO
un as
Ġester eo
or ld
Ġestim ada
Ġdiam antes
dis mo
Ġsegreg aciÃ³n
ĠRE L
Ġimparcial idad
ÃŃ ces
Ġman z
a te
Ġ020 7
am ida
ĠsÃŃn to
ĠE JE
Ġdesaf ÃŃo
Ġnoci vos
Ġjuven il
Ġtr igo
ĠEs tim
Ġlitig ios
ĠR EN
ĠIN VENCION
Ġincrement arÃ¡
Ġmer curio
Ġins eguridad
Ġci lin
ĠÂ» .
Ġ16 2
Ġ ----
Ġmon ta
ĠEJECU CION
ĠE U
Ġcontra er
Ġespec tro
tem porÃ¡n
ĠAs egur
Ġregular mente
Ġester il
Ġsuf ren
Ġrecibir Ã¡n
Ġinex cus
Ġmencion an
Ġsubs istencia
Ġedific abilidad
i res
cl or
Ġor ales
les ia
ome trÃŃa
pe z
Ġexpres iones
Ï į
Ġcon cil
Ġrein serciÃ³n
ĠCon cre
Ġfic has
A G
M C
ĠPre mi
ĠLegis laciÃ³n
ĠFE DER
ena je
ĠcÃŃ v
Ġcon m
Ġdis con
ĠPro puesta
ĠTAR IF
Ġsel lo
Ġinser ta
ĠestÃŃm ulo
quir ente
as s
ĠreÃºn en
Ġconst antes
ĠDeleg aciones
ĠC IT
jer ÃŃas
Ġacumul ado
ĠMartÃŃn ez
ĠA TRIBU
con di
ĠM unicipios
Ġsin gulares
ob serv
ĠhectÃ¡ reas
Ġcons or
Ã³rm ula
Ġcentr arse
Ġexhaus tiva
o k
99 0
tÃŃ col
Ġprolong aciÃ³n
Ġs orte
Ġdispon ibilidades
Ġ18 5
Ġagr arios
ĠC entre
ĠMon treal
Ġv ag
Ġjustific ante
AC H
ĠMag istrados
al i
Ġembar caciÃ³n
Ä ģ
ĠDERI V
se os
Ġpresent ando
ĠÃ³ x
ĠPRO VISION
Ġdegrad antes
ĠVac aciones
Ġconsider amos
Ġex ento
Ġjun tos
or ca
Ġcalific arse
Ġco dific
Ġindefin ida
ĠDiplom ado
ĠIGU AL
Ġpreven ido
ĠGÃ©n ero
ĠT iem
Ġemple adores
tra cciÃ³n
Ġincorpor e
ĠApl icaciones
ĠDe uda
Ġperci ba
con ocido
Ġ4 29
CRIP CION
Ġremitir Ã¡n
ue ve
Ġpa pe
Ġexce de
ĠEst Ã¡n
ĠAD QU
Ġreas eg
Ġar ma
Ġdenunci ado
Ġtraslad ar
Ġconcer tar
ĠdesempeÃ± ando
Ġindividual izado
Ġtr ig
Ġ16 8
Ġdelincu entes
ĠDelincu encia
ĠS antiago
ĠCU ENTAS
ĠÃ¡to mos
ĠB ag
ĠTIEMP O
Ġdic tados
ĠREC URSOS
Ġnota ble
ĠCual ificaciones
cep tos
Ġcal ificar
ĠCl imÃ¡tico
Ġcomien za
Ġom i
ones taciÃ³n
es table
ĠS anto
Ġmil ÃŃmetros
ĠDIS TRIBU
Ġdirig iÃ³
Ġprocur ar
j ones
Ġt Ãºn
Ġes pon
ha bi
Ġgran de
R ec
Ġvers iones
Ġconfirm Ã³
ĠÃŃn tegro
Ġasc ensos
i fique
Ġsalvaguar dar
Ġver b
Ġasegur ando
Ġacces ibles
d amiento
ĠidÃ©n ticas
ĠDesta ca
ĠAd ver
Ġindispensa bles
qu is
ĠCLAS E
ĠAc ciones
Ġabs entismo
bier to
Ġdetermin ando
Ġadjudica tario
Ġreg ir
Ġproce den
Ġheter o
Ġvacun aciÃ³n
Ã©n dole
Ġexten derÃ¡
ĠCu atro
ĠC URSO
C an
ĠPROFESION AL
Ġ7 50
Ġtras tornos
Ġasis tenciales
ĠCAS OS
Ġfer til
Ġreglament arios
ĠInstal aciÃ³n
Ġproven ientes
ĠAn dorra
Ġf iebre
Ġcre an
ĠQu ienes
j ec
Ġin undaciones
Ġentre gados
ĠLO PJ
Ġabon ados
tecn ologÃŃa
Ġimpu tados
ĠMaur itania
Ġre ce
Ġconsol idados
h ÃŃ
Ġsolicita ba
Ġ16 4
ĠProgram aciÃ³n
ĠFigur a
Ġaver ÃŃa
i qui
Ð ´
Ġcomple ja
ĠSAN ITAR
Ġcar ecen
x a
idu o
op ol
Ġsug iriÃ³
01 2
I ZADO
rig ada
Ġformul en
POR T
Ġint entos
d f
Ġp unta
Ġintracomun itarias
Ġestim ados
ĠRec lam
ĠAPROB ACION
D ERA
br ar
ĠCas o
ĠacompaÃ± ar
Ġh oc
Ġpl omo
ĠRegis tr
Ġmuer tos
Ġade ud
Ġliqu idar
Ġexces ivo
ĠJo han
ĠEsc uelas
ĠProduc to
man entes
ĠprÃ³r rogas
Ġperten ezca
Ġsecund arios
Ġ16 3
Ġhu Ã©rf
Ġrecurr entes
Ġpor tÃ¡
ĠDES IGN
na cionales
Ġmus ul
Ġacep tadas
Ġf isi
ĠG en
ĠCON CLU
d y
Ġhid rol
pro ducciÃ³n
S in
12 2
ĠCUER PO
ol o
Ġbanc arios
al s
Ġev idencia
Ġacredi tativo
Ġbio diversidad
ĠSeÃ± al
Ġsu ba
Ġmemor ando
ĠEMPLE O
ĠCOOP ERA
Ġre bel
cicl etas
Ġvalor arÃ¡
ĠAN D
umi r
Ġbanc ario
T ENER
Ġprogres ivamente
D ec
p inter
Ġpreten den
Ġex on
ĠAux iliares
ĠF unda
el ec
ĠPsic ologÃŃa
Ġembar que
qu Ã©
F ran
ĠTRA MI
TIL LA
Ġpercep ciones
Ġflex ibles
ĠV ari
ĠElectr Ã³nica
Ġma ÃŃz
Ġinf laciÃ³n
Ġdependi endo
Ġtra tÃ¡ndose
Ġ8 50
Ġfirm Ã³
Ġmen ciones
Ġcaracter ÃŃstica
Ġreglament aciones
Ġprec edi
Ġdeduci ble
ĠRecomen daciones
Ġsustan tivas
ĠNues tra
3 40
n Ãºmero
Ġdetermin antes
ĠPERJU ICIO
Ġpu ente
ĠX IV
tÃ¡n do
VIE MBRE
ĠDis pon
ĠIm p
Ġradi aciÃ³n
ĠcÃ¡n cer
Ġcedi dos
Ġco erci
Ġ4 50
ĠIn di
ĠGer ente
ĠInterpre tar
Ġ15 9
ĠB or
Ã¡m icas
ĠacÃºs tica
Ġan ular
Ġo cio
ĠMA YO
ĠV DIGITO
Ġori entar
Ġpreocup ado
Ġinterven ido
Ġform alizar
Ġpar ientes
ĠCRI TERIOS
Ġinc urrir
ĠAS IMI
E P
Ġmetro polit
ĠMAXI MO
ĠMedi a
ĠNO VIEMBRE
Ġdeven gadas
ĠBo ts
Ġpreten da
Ġ17 6
ĠEn mi
ĠP h
Ġpo cas
Ġdes le
al iciÃ³n
Ġcas as
IM ON
Ġpormen or
Ġoc Ã©
Ġnotific ados
ĠIgu al
Ġaconte cimiento
Ġch ino
ĠF lu
ĠLU GAR
Ġter cios
ĠMa teria
Ġcr istal
Ġpac tada
ĠAG A
ĠSent encias
ĠVE Z
Ġsometer Ã¡n
Ġges toras
Ġcontro ver
ĠCel ebr
az Ã³n
CI Ãĵ
Ġadministr ar
ĠUNMI K
Ġinsu ficientes
Ġen s
Ġincom ple
S T
ĠD ig
Ġinh umanos
Ġper m
y dro
Ġing lesa
c ares
ÃŃ e
Ġbibliotec as
ĠÃ¡rbol es
Ġpa gadas
Ġpens ion
la je
ĠtÃ³x icos
ĠPrim aria
ĠP IE
Ġmis iles
ĠLÃŃn ea
Ġtribu tarÃ¡n
Ġver tidos
Ġrel len
Ï ĩ
Ġinmobili aria
ĠAP RO
ĠDecre tos
Ġcaracter izan
Ġt Ã¡ci
Ġpre cin
Ġacep tables
ĠnÃºcl eos
B a
Ġinv entarios
Ġ27 0
ĠI C
Ġfij arÃ¡n
ent ariamente
w er
Ġtrans nacional
Ġsur tirÃ¡
Ġes cu
Ġpres iones
u k
Ġ( +
ĠS te
ĠAl um
Ġcelebr aron
Ġpromo tores
Ġpre laciÃ³n
ĠLiber tad
ĠM ando
Ġexperim entado
ĠI DEN
Ġredon da
Ġes pi
ĠPRESUP UESTOS
ĠvÃŃ deo
ĠFern Ã¡ndez
ĠTRABA J
ĠAc adÃ©m
Ġconta biliz
ĠÃ¡n gulo
Ġa ustr
ĠteÃ³r ico
Ġtitul ados
Ġl ech
ĠâĤ¬ /
B AS
Ġev ento
Ġrique za
tiv aciÃ³n
ĠUN IDAD
Ġtrata ba
Ġinform ativas
Ġactu ado
ĠF ar
Ġfinanci ado
ĠSer ra
ĠME J
ĠCom andante
Ġfigura ba
dro me
Ġre quirente
cri pciones
oso fÃŃa
Ġnotific arÃ¡n
incu agÃ©simo
ĠGobern aciÃ³n
p an
an exo
ĠPrepar atorio
Ã¡n chez
Ã µ
Ġreaf irm
qu ÃŃm
t Ã©s
Ġacab ados
Ġpres tÃ³
Ġcontra ta
Ġasesina to
ber t
tan os
ĠA ir
ĠidÃ©n tico
ĠOcup aciÃ³n
Ġcas tel
TRUC CION
es pa
Ġla c
ĠMon ter
Ġa vi
per tura
Ġconceder Ã¡n
ĠInclu ye
EN S
Ġl Ã¡m
Ġcontinu arÃ¡n
ĠTRIB UN
ĠBah rein
ĠCO ORDIN
Ġtrim estral
Ġap tos
ĠBach illerato
l ec
Ġtu tor
lu encia
ent aciones
Ġpretens iones
Ġpa tentes
O O
ĠM ari
01 4
p ico
Ġal arma
Ġbo tel
ĠOBLIG ACIONES
ven o
fon os
ĠL ondres
Ġepide mi
Ġago tamiento
s ch
12 8
ĠAdi cional
ĠFAR MA
33 5
o z
Ġfues en
ĠPres taciÃ³n
Ġpo pular
ĠSector ial
ĠÃŃntegr os
Ġexpres an
Ġindic ativo
Ġreiv indic
Ġbon os
E bre
on Ã¨s
tag on
Ã¼ r
ĠAgr aria
Ġredac tada
ĠGran des
ĠH OM
ĠEspa cios
luc osa
g l
Ġproduc ciones
Ġver sa
ĠH acer
ĠAU X
Ã³n de
Ġimp iden
gen cat
Ġentendi Ã©ndose
Ġser ies
Ġam b
ĠELEC TR
ĠA gu
Ġformul an
ĠEstu pefacientes
de mos
Ġ17 2
Ã© cula
Ġdi ri
Ġpre cip
on ado
Ġferrovi arias
ĠAU TO
ĠdemocrÃ¡ ticos
Ġsens ible
43 10
AL L
Ġa trÃ¡s
Ġcu ente
Ġconstante mente
Ġre ha
Ġ3 90
Ġtelem Ã¡ticos
Ġ ÏĢ
Ġexis tido
12 6
ĠRe ales
Ġlevan ta
Ġprorra ta
Ġcual ificado
Ġdispon ÃŃa
Ġle jos
Ġelem entales
TU BRE
Ġtransmiti do
Ġembala jes
Ġop tado
Ġ9 63
Ġplan ificar
ci clo
ĠV illa
ver n
Ġo d
Ġrec or
Ġbar emo
Ġconsul tiva
Ġdeleg ar
un i
Ġcoordin ado
Ġintel igencia
Ġarte fac
Ġconoci da
01 9
ĠS Ã¡nchez
Ġejerci da
Ġuni laterales
den ciales
ĠP ene
Ġira quÃŃes
Ġsol ares
Ġsustitu ya
os idad
ĠA van
aliz aciones
CI ADO
. ;
Ġdo lor
Ġmiti gar
ĠIMP UESTO
Ġdistribu irÃ¡
Ġdesglos ados
ĠCU ES
Ġpromover Ã¡
erra t
Ġre ba
ĠOC TUBRE
Ġresul tarÃŃa
Ġrepresent adas
Ġcompar ables
Ġinteres a
Ġab us
Ġ2 11
vi tud
Ġvuel ta
Ġreclus os
ĠL oc
ĠIMA GEN
Ġreci Ã©n
Ġis l
Ġpol im
Ġimp idan
Ġdemues tre
Ã© d
ĠDe tal
ĠFac tores
por taciones
culos is
Ġinscri pciones
ĠHOR AS
ĠClas e
Ġinjus tific
Ġap to
Ġdiferenci ado
ĠÃ©tn icos
ĠAG UA
ĠCON JUN
Ġdeleg adas
Ġasegur adoras
ĠL and
profes ional
Ġrespal dar
Ġdero gaciÃ³n
Ġtrip ul
ĠAssocia ciÃ³
0 20
Ġ20 4
Ġv as
ĠPROGRA MAS
Ġhel icÃ³p
f ar
ĠC enso
Ġconver gencia
ĠSubs idi
H RC
Ġestablec ÃŃa
Ġori enta
Ġca ca
Ġrepresent ada
ĠLO CAL
ĠseÃ±al aba
Ġejecu tivas
Ġdic tarÃ¡
Ġtem Ã¡ticos
Ġconcre tar
Ġtalib anes
Ġampli tud
Ġrendi r
ĠINTROD UC
3 17
ĠaÃ± aden
Ġglob almente
tro p
ĠQu incuagÃ©simo
Ġantic uer
P o
ĠEn tes
ĠCons ecu
Ġtransfronter izos
Ġclasific ada
ĠPro por
Ġn ulo
ĠVig encia
Ġpo damos
D IC
ĠT ALES
Ġdecis ivo
Ġpermitir Ã¡n
Ġformul e
Ġâī ¥
k et
Ġretribu ida
Ġejerci tarse
Ġcorpor aciones
Ġcolo car
ĠTem por
Ä ĥ
ĠCOL EC
ĠLi qu
Ġfia ble
ĠBar bados
ÃŃgen o
Ġso br
Ġrespe tarÃ¡n
Ġpe lo
ĠCi udades
ĠM OD
ĠMÃ¡ laga
Ġemp rende
ĠA na
ĠQ uer
de cisiÃ³n
Ġco dificaciÃ³n
Ġinst ar
Ġelabor ada
Î ´
ĠPRO TO
Ġtr ami
2 11
ĠT asas
Ġmodific arÃ¡
Ġcoleg io
Ġse mes
ĠEscol ar
ĠA cu
Ġperman ecido
pl oma
Ġv ie
ĠUN IF
ĠaÃ±ad iendo
ĠUL TI
Ġecol Ã³gicos
Ġbus ca
Ġpreci se
ĠPREVIS TO
ĠH AC
ĠM IX
Ġpro bar
Ġat entados
Ġdupl icado
Ġderiv e
b usti
Ġre pos
Ġles ivo
Ġcombin ados
un t
Â ²
Ġporno grafÃŃa
Ġan cho
ĠDirec ciones
Ġdiscipl inarias
S MO
DI REC
Ġsim ulaciÃ³n
Ġ19 69
ĠIN CI
ĠMe todo
od s
yac ente
ĠEnsa yos
ĠA pel
Ġobserv ando
ĠPARTI CIP
Ġdiscrimina torias
ĠE M
tu vieron
Ġincompati bilidades
ĠComun itat
Ġrelig iones
Ġorient ada
Ġrespon dan
ĠAl ine
Ġparlam entaria
ue tud
ĠPrincip al
S OR
pues tamente
OS TO
inos a
y u
Ġha bilita
ĠH om
ib ou
Ġsepar adas
Ġnum eraciÃ³n
UD AS
Ġreaf irma
Ġdesac uerdo
Ġim pi
v iv
Ġreem pla
ĠseÃ±al aron
ĠSU MINISTR
uf re
liqu idaciones
d ora
ĠAs unto
ug as
Ġen f
Ġmedi as
Ã³m ico
ĠDur ban
prop il
Ġprogen itores
ĠPu ig
bil aciÃ³n
Ġespecific ando
Ġdepen der
ĠLO TC
Ġcoleg a
ĠMig uel
OS ICIÃĵN
TI R
ĠHID RO
ĠEx cel
Ġprof undo
Ġr ÃŃg
ĠIncrem ento
Ġcre ando
Ġpar ada
ĠÎ µ
Ġsubpro ductos
Ġalem Ã¡n
Ġdistribu idores
Ġfis calmente
ĠInstitu ciÃ³n
t ta
Ġprom esas
Ġrepercu tir
Ġoneros as
Ġvis itar
ĠFUNCION AMIENTO
Ã³n imas
RA C
Ġpie dras
Ġ[âĢ¦ ]
ĠPRE V
ĠVic ente
Ġaliv io
Ġcomple tas
Ã© e
vici o
n ivel
Ġconsolidad as
ĠArquitec tura
Ġcuan tific
Ġafin es
oc emos
ĠF MAM
Ġagro alim
Ġreducir se
Ġsufr imiento
Ġperson am
12 4
P re
Ġimpro ce
Ġquiz Ã¡s
ĠM us
ĠEFEC TO
us iera
Ġlic u
ION ES
Ãº l
ĠN ÃŃ
Ġpotes tades
j i
Ġre plante
Ġ-------------------------------------------------------------------- --
O rden
Å ³
Ġvesti r
ĠFORM ACION
Ġtransfer idos
Ġsu mar
ech n
ĠP uestos
F I
ĠL ES
Ġinnov adoras
Ġdecis iva
ĠCOMUN IC
iti es
ÃŃl ico
Ġrad ical
P AL
Ġresul tando
Ġproporcion ando
Ġacopl amiento
Ġnav eg
Ġvi aria
ĠDOCU MEN
Ġcu bre
s us
Ġalfa be
oc aciÃ³n
ĠMu tualidad
Ġinform ativos
ĠAdministra tivas
Ġdeb idos
Ġinesta bilidad
ibou ti
Ġsegun dos
Ġminis terio
ĠORGAN IZ
Ġposi bilitar
Ġconduc e
lado lid
Ġocu pen
ĠSÃ¡ hara
ĠS aba
ĠObserv atorio
re l
ĠC IC
ĠS K
Ġpres tig
ĠDe velopment
ĠhÃŃ br
Ġpertin encia
H a
ĠS oluciÃ³n
Ġalcan cen
ĠEmpres arial
ĠTo go
Ġtrayec toria
publ icaciÃ³n
Ġrespe te
ĠLi bre
ĠSUPER FICI
Ġe dades
Ġminus val
Ġal mid
ĠQUIN TO
ta bilidad
Ġau tÃ³
Ã «
Ġaduan eros
Ġarancel arias
Ġen mar
ĠH O
40 8
Ġsancion ado
cal a
Ã¡c tica
Ġpa vim
Ġafec to
Ġcr ueles
AB IL
Ġetique tas
Ġinacep table
13 2
Ġn ÃŃ
ĠG esti
Ġreun iÃ³
Ġadh es
ĠInstrum ento
Ġac ce
Ġimpon en
Ġconse jera
Ġ17 1
Ġentor nos
Ġdeci m
Ġcons uetud
Ġadquir entes
Ġnegoci ado
Ġequili brado
ĠH ER
Ġpermiti Ã³
ĠS res
ĠlÃŃ deres
Ġconfigur a
ĠCONF ORME
ĠA TEN
ĠN IN
ĠâĢ Ŀ
Ġcompar tim
Ġcerr ada
Ġrespon da
ĠCONC ESION
ĠdÃ© bil
Ġreduci endo
ĠPriv ada
Ġtendr ÃŃan
Ġaer Ã³dro
Ġinmun idades
TE L
Ġor almente
Ġanti jur
Ġtraspas an
Ġre duce
ĠDisposi tivos
Ġquiz Ã¡
Ġten dentes
Ġfin ancia
Ġbom ba
Ġfran qu
NUD MI
Ġum brales
Ġsolici tarÃ¡
Ã³ geno
Ġoper ario
ĠCUA TRO
M ON
N L
ĠâĢ ĺ
ĠMonts errat
ĠT D
Ġporte ador
Ġcom arca
Ġpresent aciones
ĠW o
Ġpro tes
Ġclaus ura
ĠPed ro
ĠRA Z
Ġincumpl imientos
01 6
Ãº tbol
Ġencamin ada
ĠTRAS PAS
Ġrig or
ĠCap ital
bo x
B C
Ġint Ã©rpre
Ġaca bar
IR AN
Ġatribu yen
ĠFO MENTO
Ġira quÃŃ
Ġre h
Ġdirec triz
ĠsÃŃnto mas
Ġmo jÃ³n
Ġexac ta
ĠInter ministerial
Ġintermedi aciÃ³n
Ġintercon exiÃ³n
er es
Ġinclu ÃŃa
13 6
ĠTRA TAMIENTO
ĠF re
ĠmarÃŃti mas
ĠB ro
Ġemiti das
ĠCAP I
F in
ĠNIN GUN
Ġg ase
mo ciÃ³n
Ġorganiz a
Ġinter f
Ġejerci endo
ĠRec og
ĠteÃ³r ica
ĠCu a
ri es
ĠDefin ir
ĠEXP LO
ĠdemocrÃ¡ ticas
ĠR endi
Ġarquitec tÃ³n
ĠRep ubl
ĠINSPEC CION
ĠPR IV
ĠBots wana
ĠLog ÃŃstica
Ġdemos traciÃ³n
Ġaleg ado
Ġlevan tamiento
Ã±a de
TER A
ĠTERRI TORIO
ĠAGA UR
Ġsu puesta
ad s
DA W
Ġp H
40 4
22 1
ĠMON UC
15 4
M G
Ġ17 4
ĠVo tos
c ador
AL A
Ã¡ndo la
Ġofre cido
Ġelabor Ã³
Ġdesin fecciÃ³n
ĠCom mun
Ġsiem bra
Ġconden ados
ĠCos tas
flu oro
ĠExcep cionalmente
Ġminus vÃ¡l
ĠRes pe
Ġapor tando
k el
Ġpre ex
30 8
Ġconse jerÃŃa
g amos
ĠCor rec
de leg
ĠDis cipl
Ġdej arÃ¡
ĠAC RE
ĠLam enta
Ġconclu irse
ĠMonter rey
Ġmanio bra
ord ina
IG EN
Ġtermin ologÃŃa
Ġsubvencion ada
k in
ĠCIN CO
Ġempe Ã±o
Ġcr imen
ĠES TAN
Ġsig no
ĠORGAN IZACION
ĠCl ÃŃn
Ġarti culaciÃ³n
J AS
ĠPer e
ĠPUE DAN
Ġf rigor
Ġasumi rÃ¡
Ġfemen ina
Ġconf usiÃ³n
Ġbrev edad
Ġregul adores
Ġmar tes
ĠCu antÃŃa
Ġreci claje
ĠTa iw
c z
pe ci
13 8
ĠCREDI TO
Ġpais aje
Ġgestion ados
i tamente
Ġde je
Ġdescentr alizaciÃ³n
t anto
Ġba ch
TR E
Ġacredi tarse
ic ular
Ġven ÃŃa
Ġjuven iles
ĠEurope an
Ġm ie
ĠOp tativas
Ġorden ado
Ġ16 7
es ter
ĠFun cionarios
ĠclÃŃn ico
Ġdemues tran
ĠADE MAS
Ġfun cionalidad
vis iones
ĠEj em
Ġvalor ado
ĠdesempeÃ± en
Ã³ cra
Ġpercib ida
ÃŃns ula
â Ĥ¬
Ġprocedi endo
Ġsustanci ar
Ġexamin ados
Ġvolun tariado
l ora
ĠPES O
ĠJue ces
Ġl lu
ic s
lan des
Ġfigura ban
Ġsinies tro
Ġentabl ar
Ġreincorpor aciÃ³n
Ġter a
ta tivamente
Ġcontra taciones
Ġferrovi aria
ĠAGR ICUL
Ġasum idas
g entes
Ġolvid ar
Ġmar inas
ĠM Ã³n
Ġnoctur nidad
ÏĦ Î±
ĠH on
Ġsin c
ĠDO C
ĠDel ine
Ġconsum os
ĠAg ra
Ġquier en
Ġf le
ĠManten er
ĠM ir
23 5
Ġprohib idos
) ).
Ġan ula
Ġlitig io
errami entas
Ġgra tificaciÃ³n
ĠAD H
ĠDes conocido
Ġllev aron
ĠV IA
ios a
Ġacel er
C i
ĠDj ibouti
2 30
ĠColabor aciÃ³n
Ġhal lar
ano va
Ġrepresenta tiva
ĠCan al
Ġg iro
ĠASIS TENCIA
Ġabs uel
Ã³ pez
er roga
Dis posiciÃ³n
ĠTram itaciÃ³n
Ġrespon den
em ber
Ġde com
Ġocup ante
ĠRe port
P AD
ĠPER MI
Ġp p
Ġrevesti miento
Ġvalor arÃ¡n
Ġencom ienda
Ġrevis adas
ĠEX A
P lan
ĠM EC
l us
qu ina
se t
d ada
ĠAdu an
Ġdescan sos
ĠInc orpor
ie d
Ġdeslin de
Ġdisc usiÃ³n
23 3
Ġdis u
Ġpeligros idad
ĠL lev
Ġenfer mos
78 0000100
Ġemprendi das
Ġarras tre
ĠCom mission
Ġindic arÃ¡n
ĠApar atos
ĠInf antil
ĠPene d
ĠTrin idad
Ġ4 80
Ġcomporta mientos
ur nal
ĠPro hibiciÃ³n
Ġ17 9
Ġacog er
i fe
Ã©n icas
ĠAG OSTO
ĠPES CA
Ġingredi entes
ĠM ez
tam ento
Ġtas aciÃ³n
ĠAutÃ³nom os
Ġconstitu irÃ¡n
au tor
ĠSosten ibilidad
x x
Ġsolici tarse
ĠA CE
Ġresolver se
ĠPl en
ĠcÃ¡n ones
ĠSi endo
Ġconcord antes
Ġ22 5
Ġmin eras
Ġperiodi stas
TR IC
en dan
Ġsub partidas
de rec
ĠCos tes
Ġmu til
ĠT ex
Ġper mÃŃ
Ġllam ados
ĠT re
40 5
ĠA fric
Ġoc urridos
Ġdefini tivos
ĠMES ES
Ġconform an
ĠM SC
Ġco financiaciÃ³n
do bl
ĠL Ã³pez
den as
Ġobje tivas
ĠSO ME
ĠMovil idad
Con se
7 60
Ġconv ir
ĠCla us
ĠParÃ¡ metros
Ġpres tarse
Ġf lor
ĠAutÃ³nom o
Ġautent icidad
22 3
Ġv icepres
Ġman tuvo
n orm
Ġcer dos
Ġab und
i tudes
Ġfacul tativos
Ġsu puestamente
Ġindividual izada
Â ´
der amente
Ã©ndo lo
Ġcom is
ti f
Ġconvo cado
ĠB lo
k ar
Ġo dio
am ent
Ġconstitu irse
Ġretir ado
Ġpreve an
Ġm ÃŃ
il ado
Ġsegu ÃŃa
ĠsistemÃ¡ tico
ĠCOMPLE MEN
Ġasign arÃ¡
ĠMER C
Ġvol um
Ġcontribuy endo
VAL U
Ġdefec tu
Ġminim izar
I CEF
Ġfolle to
Ġnotific Ã³
Ġgana dera
Ġvisi bilidad
Ġocu pe
ĠFe deraciones
Ġcasti go
ĠPRODUC CION
Ġsec c
Ġver ificado
Ġpropon en
Ġtuber ÃŃas
Ġsubas tas
Ġtribu tar
ĠBas il
Ġintern amiento
rendi z
Ġab ertura
ĠJuris dicciÃ³n
Ġf um
MI SION
Ġcontrol adas
ĠPrepar ar
Ġin yecciÃ³n
ĠD ero
Ġpermanente mente
ĠcrÃŃ ticos
Ġ17 7
Ġsir ven
Ð¸ Ñ
to ck
Ġdestil aciÃ³n
Ġconcer tada
ĠacadÃ©m icas
Ġde trim
01 8
ĠDis trito
Ġ29 2
ton el
n er
ĠEL LO
ĠREP ÃļBLICA
ĠINGRES OS
Ġgarantiz an
Ġan illo
Ġprovis tos
Ġpotencial mente
Ġausp icios
Ãº b
ĠU GT
Ġposi tivamente
Ġembaraz adas
ĠDEB E
Ġdesp o
ad ra
Ġtr on
ven a
13 4
Ġ22 3
2 70
ĠvÃ¡l idas
ĠPenitenci ario
ĠMag istrado
Ġacog iÃ³
ec ular
Ġin ma
Ġdistin tivo
fici os
Ġactiv aciÃ³n
Ġfuer tes
Direc tiva
em ple
Ġtransform aciones
Ġconsul tores
ĠSEPTI EMBRE
Ġnum er
Ġinver tido
Ġinstal ado
ĠCU YA
an ual
ĠINSTAL ACIONES
Ġmens ualidad
Ġinnov adores
Ġejecu ta
Ġalmac enaje
Ġdisfru tarÃ¡
de m
Ġmos trado
ES A
ol ÃŃ
Ġrefer Ã©ndum
ĠR D
Ġcre arÃ¡
ĠCir culaciÃ³n
Ġexpedi das
Ġrenunci ar
Ġ21 4
h asta
IS IS
* )
Ġbe i
Ġautoriz Ã³
Ġprepar ando
Ġimper ativo
22 7
ĠCUL TURA
ud s
ĠINS TRU
Ġnutr i
Ġcalific adas
ĠI TC
Ġmatric ulados
V M
Ġinjus tificada
Ġel u
ĠOc tavo
ash ington
ĠR ecu
ĠEsta bilidad
ĠÃ³pti ma
Ġper icial
Ġre clas
Ġori entado
uro pa
Ġpeculiar idades
ĠTen drÃ¡
Ġrev iste
ĠPAR LA
Ġintermedi arios
ĠEx isten
ĠJohan nes
Ã¡p s
Ġforma tos
ĠPubl icidad
Ġde du
Ġsustitu idos
2 60
c ura
Ġdetrim ento
l ing
Ġreserv ados
Ġacog ido
Ġencontra ban
Ġresul tÃ³
tin es
ĠDes eo
Ġmo jones
Ġcos echa
Ġaz ufre
ĠCO LA
ĠViol encia
Ġn Ã¡u
Ġsilves tres
Ġextrem adamente
ĠH E
ĠM ed
Ġsubje tivo
Ġes bo
Ġclub es
Ġintroduc en
4 60
Ġ10 40
Ġasis tido
ĠsÃŃmbol os
Ġpos ea
ĠIn cumpl
ĠPROTO COL
Ġv icios
Ġpare jas
12 9
Ġneces ite
ĠÃºn icos
ĠVI V
Ġprivileg ios
ĠCIE M
Ġcaracter izada
Ġadvers os
Ġprote ÃŃnas
Ġto pe
Ġdil aciones
Ġa ci
13 1
Ġtradi ciÃ³n
den tales
Ġreci biendo
Ã Ģ
Ã©r amos
Ġon ce
Ġpers igue
Ġinters ector
ĠModific aciones
ĠCom ple
n Ã©
Ġsu yo
Ġ18 1
Ġtelef Ã³nica
ĠTRIB U
tece dentes
ĠcontinÃº an
ĠSOL O
te x
Ġprop icio
Ġorganiz adas
ĠQUE D
Ġcons igo
ic y
Ġcomesti bles
in aciones
Ġo poner
estr amiento
Ġprosper idad
ĠCompro misos
Ġmanifies tamente
ĠMUN ICI
ĠCapaci dades
Ġmusul man
ĠEX PER
Ġme til
ĠPala cio
ĠCa za
Ġadministr ados
r ado
Ġhal le
Ġdes venta
Ġinmedia tas
Ġ* *
x imo
Ġespeci fici
ĠAgrup aciÃ³n
ĠCA US
OS A
Ġdeleg ue
FA CE
Ġh ur
ĠCapaci taciÃ³n
Ġman ej
eci da
Ġaleg ando
ĠRecono cer
Ġmi Ã©rcoles
Ġpudi eron
01 7
Ġinadmisi ble
o cup
ĠAr te
In ter
Ġplur al
ĠMÃ³n aco
ĠL l
Ġdistribu ido
Ġcompensa torio
Ġre acciones
Ġliqu idad
ĠE VALU
ĠF L
pen ha
Ġasis tida
OLOG IA
ios o
Ġcumplim entar
Ġtranspor tista
Ġd ados
Ġad m
Ġfacilit ados
br amiento
ĠI M
Ġpenitenci arios
ĠLEGIS LACION
ĠTEN DRA
Ġen ar
Ġfres ca
Com isiÃ³n
Ġcosm Ã©ticos
Ġfuncion a
âĢĿ ;
Ġinstal ados
or io
ĠSE X
Ġcual ificados
Ġaleg Ã³
Ġtro pas
Ġcon vin
Ġjo ven
c hos
ĠCumpl imiento
Ġrele vo
t m
ĠES C
Ġverda deramente
ĠDOCU MENTOS
t ectores
Ġconsign aciones
ĠJ ordi
ĠCON VO
Ġ20 2
Ġimper io
Ġadjudica taria
ĠAl icante
Ġcandida tura
Ġcoher entes
ĠAdap taciÃ³n
ul osa
Ġaplica bilidad
ĠPened Ã¨s
Ġlabor able
Ġofre zca
Ġper ceptor
ĠEx ter
ĠPRE CIOS
Ġnegocia bles
áĥĶ áĥ
Ġcol ores
Ġres idi
Ã ¸
Ġlimit an
ĠTaiw Ã¡n
ec o
Ġf Ã³s
ĠCon clusiones
Ġcambi ado
ĠEl s
Ġinvo ca
n am
Ġpres tadores
Ġescri tas
ĠESTABLE CE
Ġinter rum
ĠRe in
f ran
Ġc aduc
Ġc eder
Ġcomprob ando
Ġadver tencia
Ġtransmiti da
Ġcons isten
Ġecol Ã³gico
Ġpes te
Ġsuplem entaria
Ġdil uciÃ³n
D H
ĠCU YO
Ġbrin da
Ġreconoci mientos
Ġaplic Ã¡ndose
ĠCO MB
ĠCONS U
ĠC NUDMI
uer o
P IC
Ġcauc es
Ġpsic olÃ³gica
ĠLic encias
Ġsubsidi aria
Ġelectrom agn
Ġaum ente
Ġas i
Ġactu ante
Ġad vier
Ġcam iones
Ġmedi ados
Ġpol ival
ĠENERG IA
Ġ3 80
Ġgra baciÃ³n
Ġpractic ado
Ġcorrespon dÃŃa
ĠM igra
Ġse ver
ĠCan aria
ĠAg ro
Ġsustan tiva
ĠDIREC TIVA
ĠESTATU TO
Ġin venciÃ³n
Ġincon ven
ĠCientÃŃfic o
c ton
Ġprepar atorio
Ġca brÃŃa
Ġdeci mos
Ġf us
ĠN aciÃ³n
ĠAb u
Ġ19 66
Ġoblig ar
Ġ21 5
Est ado
Ã¨ re
c amente
ĠNa tional
Ġpros pec
ĠSOL U
ĠP EL
Ġacci dental
l s
13 3
Ġcontempl an
ĠAQUEL LOS
in i
43 2
ĠUl tra
ĠCU O
tor n
ĠTiem po
Ġconsul tarse
ieg os
AN J
Ġtermin al
ĠT ÃŃtulos
ĠPer misos
12 7
14 1
G ADO
Ġ rol
Ġproblem Ã¡tica
ĠÃ© tica
ĠASIMI SMO
ul f
ĠV entas
Ġdej Ã³
Ġreca e
Ġces ar
Ġpres identes
Ġdiscrimina torio
R a
h ttp
Ġparticular idades
Ġsubreg iÃ³n
ci dades
Ġfor ra
2 90
P ubl
SI L
Ġserv irÃ¡
Ġcier tamente
Ġtransfronter izo
Ġcu Ã¡ndo
Ġsufr ida
Ġencar garÃ¡
Ġcorre la
ĠLO CALES
S ecre
ĠAUX ILI
Ġestim ul
Ġox ÃŃgeno
Ġimpar ticiÃ³n
ĠF UER
Ġma pas
z i
Ġprim arias
AN EXO
Ġvalor ando
ĠTur k
Ġ20 3
Ġneg ro
w an
vi as
Ġsegu irse
Ġcumpl idos
ĠINDUSTR IA
ĠVal ladolid
ĠPRIM ER
u den
B S
P V
Ġasegur en
Ġex acciÃ³n
Ġapro vision
ĠMIS MAS
ĠDesarrol lar
ĠÎ º
ĠREL ACIONES
Ġsom os
Ġabs oluciÃ³n
di ciÃ³n
ĠFA CIL
Ġconvic ciÃ³n
Ġimp ru
ĠESTAD ÃįS
ĠOrgan izada
ĠtÃ©rm ico
Ġencontr amos
ĠÃļn icamente
B ER
ĠaÃ±ad irse
ĠFunda ciÃ³
Ġser io
ĠMu seo
ida e
min ente
tocol mo
Ġres iduo
Ġgener an
Ġsatisfa gan
ĠTECN ICA
ci entas
ĠV inos
Ġpor cino
Ġan g
ĠEst arÃ¡n
ĠCo penha
Ġd Ã³nde
Ġapar ej
Ġtrans crito
Ġintens ificaciÃ³n
tr Ã©s
Ġejecu tadas
cios as
ĠPa go
Ġqui era
Ġagu ja
Ġ20 5
Ġcalific ada
Ġdiv orcio
Ġsubvencion adas
vir on
ÃŃgen es
Ġmon itor
ĠlÃŃqu ida
G S
v ig
Ġinmedia tos
Ġinconstitu cional
ĠBa jo
ĠSUS TITU
Ġcrim inal
ĠF CCC
ĠV eter
ĠConse ll
l eno
Ġin util
Ġdi Ã³xido
ER ACION
Ġcombin aciones
ĠCor reos
Ġmos trar
Ġsep tentrional
U r
ĠcÃ¡r n
ĠEX TRA
ĠEqui p
ĠAsesor amiento
ĠPR AC
ĠalcohÃ³l ico
Ġfil tro
os an
ĠAs entamientos
Ġdemoc ra
tiv in
ĠcrÃŃ tico
ĠUrban a
estu ario
Ġv ic
Ġpron ta
ĠSu stancias
Ġampl ÃŃa
ĠocÃ© anos
Ġconsi dero
ĠTERRITORI AL
Ġd ÃŃg
Ġbar ras
hÃŃ dr
id ina
Ġenvi ada
ÃŃ cl
Ġv amos
Ġcor tes
25 1
ys tem
70 3
Un idas
Ġde ficiente
Ġ________ ____
it z
Ġcon fes
Ġf Ã©r
ĠConcre tamente
Ġ20 6
ĠBr un
A u
ta to
Ġperten ecer
Ġexpro pia
Ġrenova ble
Ġobliga toriedad
Ġgeneral izada
Ġimpa go
Ġrevel ar
M edi
ĠM ad
ĠAc tivos
Ġgran el
Ġna turalmente
Ġprorrate o
Ġincorpor ando
ĠV A
ĠUN OPS
Ġfoto grafÃŃas
Ġp asta
Ġpalestin a
Ġedific able
ĠB il
L ER
Ġinterval os
Î ¸
Ġcre en
qu era
do ba
Ġprestig io
ĠCUES TION
TORI AS
Ġcer ci
Ġen uncia
Ġcom arcas
Ġestudi ando
ĠJohannes burgo
Ġobje tividad
ĠGu yana
ĠFich ero
Ġd ren
Ġ22 2
ĠE bro
p icos
ĠEX IGI
Ġaclar aciones
ĠCONSIDER ACIONES
Ġto po
Ġreserv ada
ĠâĹ ĭ
ĠREFER ENCIA
G N
ĠEslo vaca
ĠaminoÃ¡ cidos
Ġ _
Ġrespe ta
ĠAl ba
Ġpa ternidad
ĠAl can
m m
Ġba c
ĠPal mas
Ġevalu arÃ¡
p Ã©
americ ano
Ġ( .
g ible
ĠJur ado
Ġw h
ĠtÃ©rm ica
ĠCA MP
ĠanalÃŃ tico
ĠReglam entariamente
Ġdon ante
Ġa terr
Ġ29 7
Ġeleg ida
Ġla dos
Ġsucurs ales
Ġtransmiti rÃ¡
ĠPATR IMON
Ġrefug iado
ent amente
ĠCON CED
ĠCENTR AL
Ġ18 3
Ġimpl icar
ĠPr Ã©s
Ġdescu entos
Ġremol que
an Ã©s
ĠPROTEC CION
Ġa fricana
ĠEnsa yo
ĠREAL IZACION
Ġestadouniden ses
ĠW orld
ĠCO O
ĠautÃ©n tica
Ġborr ador
ĠI L
Ġdar le
ĠLe trado
Ġexplos iÃ³n
Ġcre emos
ĠLeg al
ade ro
da je
Ġocupa cional
ĠS ESION
ĠEXTR ANJ
Ġsigna tarios
Ġen ga
F IA
ĠCan je
ON G
25 5
Ġdenomin adas
Ġgo zan
ĠCal endario
ĠBan k
n ombre
Ġpur amente
ĠEs tocolmo
tÃ¡n ea
Ġcatas tral
Ġmodi fique
Ġcertific ada
ĠN Ãº
Ġprec urs
Ġin yec
Ġta x
ĠKirgu istÃ¡n
TAR SE
Ġrepe ti
Ġveter inaria
Ġf Ã¡rma
Ġseleccion a
ĠV id
ĠP H
ĠEN FER
Ġsustitu ida
ĠCompe ti
ĠD K
ĠSer ÃŃa
60 2
tÃº an
ĠMIN IMO
per aciÃ³n
ca tegor
ĠvÃ¡lv ula
ĠRE TRIBU
F AC
Ġ220 4
ĠES CAL
ĠREGLA MEN
RA G
Ġtranspor tar
ĠClu b
v ÃŃo
Ġintegr arÃ¡n
AN IA
Ġaprob aron
Ġininterrump ida
Ġabsorb ente
Ġdes mante
ĠFij i
22 4
Ġestric tas
Ġentrevis tas
00 000
bral tar
ĠS t
Ġins isti
ĠAbog ados
ĠCon clu
Ġrecha za
ĠanalÃŃ ticos
ĠLic encia
Ġlagun as
Ġcaus adas
Ġser iamente
ĠSE IS
[ .
Ġdo tado
ĠInstitu cionales
Ġdepor tes
Ġ19 5
Ġselec tivas
G L
ĠSe a
Ã Ī
am b
Ġfir mas
ĠNav egaciÃ³n
ĠEF SA
Ġvege taciÃ³n
UN S
ĠIndic ar
ĠDECLAR ACION
Ġescuc har
ĠFerro vi
Ġcongel aciÃ³n
Ġarres to
Ġregul e
G rupo
Ġcaracter iza
Ġgo zar
ĠDIGITO uno
18 2
Ġmo ciÃ³n
di quen
Ġseg mento
Ãºr g
Ġv io
ĠautomÃ¡ ticos
ĠS ES
Ġpotes tativo
Ġtraslad ado
Ġman eras
Ġlimit adas
Ġdibu jo
cambi o
ÃŃgen a
ch ar
Ġextrapresupues tarios
Ġconstitu cionalmente
inclu idas
ĠG AL
D o
Ġidentific adas
TIVA MENTE
ĠmecÃ¡n icas
Ġinstal ar
33 3
us to
Ġexis tÃŃan
ĠAJ US
Ġasegur amiento
ĠEspecific aciones
ĠSal as
Ġcongel ados
Ġb uro
ĠI di
ĠD rogas
por tu
ĠF om
Res oluciÃ³n
M inis
Ġeng lo
Ġcap as
a k
Ġinoc encia
ĠhuÃ©rf anos
Ġto man
ĠAutor izar
P OS
ĠD ir
Ġ19 4
ĠRa tificaciÃ³n
TI FICA
Ġrecord Ã³
Ġexpl icaciones
Ġarancel aria
Ġfronter izos
Ġale aciones
Ġref undi
ĠAD S
ĠU su
25 6
Ġgen Ã©ticamente
Ġproxim idad
Ġenorm es
ari lo
Ġrec o
Ġpi enso
Ġe pÃŃ
ĠPre visiÃ³n
Ġdu od
Ġjustific arse
Ġexce dentes
ch en
Ġsinerg ias
os is
Ġrestring ido
ĠA Ã±ade
ĠAN TI
Ġtes is
ĠsocioeconÃ³m ico
ĠAn tecedentes
Ġescla vitud
G AS
Ġo pone
Ġcolabor adora
Ġproporcion ados
Ġresulta ba
ĠR en
Ġincorpor ada
ĠAc ci
or amiento
Ġcotidi ana
Ġtransform ar
Ġ040 6
des arrollo
Ġconstruc tiva
Ġfru to
ĠAsigna tura
ĠESTRUC TURA
Ġbach illerato
ĠP N
ac ha
Ġcul min
ĠAquel los
Ġacep te
ĠC M
cer ÃŃa
ĠMÃ© dicos
Ã©tr ico
Ġelev arÃ¡
Ġexces ivamente
Pres idente
Ġ________________ ____
Ġ---------------------------------------------------------------- -
Ġexpedi dor
ĠFiscal izaciÃ³n
Ġremitir se
Ġhostil idades
bur g
Ġorient ados
00 9
Ġmicro organ
Ġin o
ĠCoordin ar
Ġflu idos
Ġprovis to
Ġdesarroll arse
Ġimplan tar
Ġsu plemento
an tiles
Ġjustific ativos
Ġdicta min
4 70
Ġtra za
ĠPrue ba
Ġbi oci
ĠMon etario
PORT UN
ĠH ECH
Ġofre zcan
ch er
ĠEUROPE O
ĠGaranti zar
Ġ18 9
is tro
UES TAS
Ġdescri p
Ġtempera turas
0000 00
Ġdeven gado
Ġco yun
Ġelector es
FICI ENTE
Ġsec os
Ġpare des
Ġrecicl ado
Ġdeud ores
P es
Ġdes isti
ĠRec ep
ĠFacil itar
Ġob tienen
ĠMon eda
Ġmenosca bo
Ġun itarios
Ġindic aba
p osi
us cos
ĠN L
Ġexpedi rÃ¡
Ġmul tina
Ġsusp endido
ĠSEG U
Ġredac tados
ĠA MPL
âĢĵ ,
Ġacumul ada
ĠBasil ea
Ġmanio bras
ĠCARACTER ISTICAS
preci aciÃ³n
pro ductos
Ġ25 1
Ġj erar
ĠMer idional
ĠEstu di
ĠMODE LO
Ġorden a
ĠSelec cionar
ĠCopenha gue
Ġdenunci ante
Ġperjudic ado
Ġlig eramente
Ġap enas
ĠCon ces
Ġcl ari
Ġent ran
Ġfirm ados
ĠF ue
Ġjur ado
al d
Ġconf is
Ġenvi arse
L AR
ĠO PORTUN
Ġcan alizaciÃ³n
Ġperju dicial
Ġcau se
Ġbol sas
ĠC erv
Ġargum entaciÃ³n
Ġcontribu ya
Ġrespe tu
ĠCOMP OSICION
ĠT NP
i Ãł
Ġsor p
T P
Ġpo tas
Ġimp rim
Ġcolabor ando
2 14
Ġbien venida
Ġcomplem enta
w ie
ĠOrgan izar
Ġsir van
Ġfia bles
Ġcum bres
ĠV Ã©anse
ĠRec om
Ġrean udaciÃ³n
ĠCo e
Ġanti personal
di ciembre
ĠSex agÃ©simo
ĠG uerra
D R
Ġesta bles
Ġmodific adas
Ġoportun amente
in ec
Ġreiter ado
Ġbien al
Ġitiner ario
2 80
Ġescol arizaciÃ³n
Ġconcern iente
Ġexclu yen
Ġprevisi bles
Ġcatal anas
Ġinadecu ada
ĠC ala
Ġg min
Ġcontra ÃŃdo
ĠAY UN
ĠI IC
ĠPRODUC TO
Ġostent en
dez co
Ġcaca o
ĠP AC
en ia
D IDO
di rÃ¡
S eg
ĠC IER
or ias
ĠMa temÃ¡ticas
Ġelev adas
ĠA us
ĠRe habilitaciÃ³n
3 20
w s
Ġvo cal
ĠNucle ar
ĠJus tificaciÃ³n
Ġconse jeros
Ġv era
ĠidÃ©n ticos
Ġja pon
Ġle v
15 7
Ġconsideran dos
Ġadmiti das
ĠclÃŃn icas
ĠArbi traje
Ġun ida
truc ciones
Ġf luc
Ġprofun das
P ue
Ġequival e
ĠAg ente
2 13
ĠIn capacidad
Ġcons igna
Ġsuministr ada
ĠMAN TEN
Ġcorrespondi endo
ĠEx posiciÃ³n
Ġprefer encial
ĠB ell
ĠEstad ÃŃsticas
ĠMic ro
Ġdescon oci
ĠContin ua
Ġprim ario
ĠDIGITO CE
Ġservidum bre
ec os
Ã© p
fec ha
pinter ÃŃa
p df
Ġtran se
Ġ20 8
Ġi ba
CR P
Ġguar dan
or e
Ġdi ur
ĠF Ã¡
Ġfrecu ente
ber na
Ġsu ceso
Ġ21 8
CA P
Ġvacun as
Ġe ficientes
Ġvi ales
ari ciones
Ġfigur arÃ¡n
Ġparticip ando
Ġencomend ado
ĠTener ife
ĠPROTOCOL O
cion s
Ġ1 000
ĠF i
S P
ĠcatÃ¡stro fes
Ġcomun eros
Ġsegu idamente
Ġcompe tenciales
ĠM Ãºsica
Ġpantal la
Ġafec ciÃ³n
Ġcooper en
Ġc eb
Ġafi an
ĠColabor ar
ÃŃf ero
Ġto cante
men istÃ¡n
land Ã©s
ĠpartÃŃ cipe
Ġimproce dente
DEN CIA
ĠVol umen
Ġvi tivin
Ġsobre p
Ġdeman dado
igui endo
Ġdi laciÃ³n
de as
Ġenunci ado
Ġcom presiÃ³n
ĠAG U
Ġbo vinos
ĠPal ma
ĠR N
ĠH C
Ġinher ente
- )
Ġher idos
ĠPr os
Ġsec ado
Ġplan taciÃ³n
Ġ23 5
Ġinnov aciones
af as
Ġrecubier tos
Ġneces itar
Ġh Ãºm
20 20
Ġf iduci
Ġinvers or
Ġmus icales
Ġre utilizaciÃ³n
Ġtrans f
Ġdesarroll arÃ¡n
ĠFundam entales
Ġsepar adamente
ĠAcog iendo
Ġpin tura
Ġexisti rÃ¡
ÃŃs imo
T ran
Ġinmobili arias
Ġtu viese
Ġpil ares
Ġpres identa
Ġllam a
Ġdesle al
N AS
ko v
Ġparlam entario
Ġma pa
Ġ3 60
mÃ¡ tica
Ġactualiz ados
ĠHistÃ³r ico
4 01
Ġd osi
Ġdi stancias
ĠAh orros
Ġinexcus able
ĠS ir
Ġefectu Ã³
Ġmodific Ã³
ĠCon ceptos
ĠPRO POR
Ġacciden tado
J ES
Ġm em
Ġoptim izar
Ġalem ana
Ġcaracter izaciÃ³n
ĠCuo tas
Ġinscribir se
ĠG HS
ĠsÃŃmbol o
Ġba Ã±o
Ġampli ada
Ġdetec tado
Ġdi la
Ġasumi endo
Ġdesplaz arse
ĠS amo
entes co
la u
N DICE
Ġestableci eron
Ġ21 6
Ġlis tado
Ġgu ÃŃas
UR R
16 6
Ġn on
Ġreaf irmar
AN ZA
Ġeng orde
ĠDivers idad
0 30
Ġpreval encia
m b
70 2
% ).
Ġinquie tud
Ġindividu o
Ġguar dias
ĠCERTIFIC ADO
N H
Ġ" ...
Ġcontr as
ĠmÃ© tr
Ġconce den
H ospital
Ġacus aciones
ĠEst ar
Ġni Ã±a
Ġconveniente mente
Ġdupl icaciÃ³n
Ġmanufac turas
Ġ20 7
Ġpeti cionario
Ġos tente
Ġsucurs al
ĠS ÃŃn
Ġaspira ciones
ĠT ESOR
Ġtel ecomunicaciÃ³n
ĠMen ores
ĠCOLA BOR
M adrid
cul tura
Ġdese arÃŃa
Ġmutu as
ĠMATERI ALES
a v
Ġabon os
ci e
Ġpers istencia
DE A
- .
Ġculpa ble
de os
16 7
Ġmar ido
Ġllam amientos
ĠPUE DEN
Ã¡n icos
ĠReg iones
Ġve a
Ġro jo
16 5
Ġval er
Ġrecha zado
ĠM emor
Ġgas Ã³leo
ue z
Ġrequer irÃ¡n
Ġcontr arios
ĠRec uerda
Ġidentific a
ĠF AL
Ġ18 7
Ġemprendi do
Ġher idas
Ġreembol s
Ġsometi miento
Ġtr enes
Ġindi quen
ul la
el e
ĠPol it
ĠMERCAN CIAS
] ;
ĠInstruc ciones
ĠMo jÃ³n
Ġacord arÃ¡
Ġdes vir
ĠT F
ĠTerritor ios
Ġdel s
ĠBÃ¡s ico
Ġmatrimon ial
Ġpes quer
Ġapo yen
Ġhal lan
ĠPARLA MENTO
Ġdisp ersiÃ³n
ĠRela cionar
Ġtelef Ã³nicas
ĠPre via
Ġextra er
ĠConse jerÃŃas
Ġcomprob arÃ¡
Ġlo como
Ġsuperfici ales
ĠIn dica
ĠNO MBRE
m Ã³n
99 9
tom ÃŃa
Ïģ Î¿
H IB
ĠT ej
Ġform e
Ġherman o
v icultura
Ġb in
Ġh ilo
Ġv ectores
Ġrec tan
ĠAP ARA
ar res
por dÃł
ĠZ ONA
ĠCONSECU ENCIA
ĠW ashington
ĠAUT ONOMI
ĠSem illas
Ġinter net
Ġplante arse
gra fes
C ar
Ġcerr ar
Ġac cionamiento
Ġmuer tes
ĠPro f
Ġcal entamiento
ĠHa ber
Ġautomatiz ado
Ġ30 2
Ġarrend ador
an n
Ġ19 2
ĠPARTIC ULAR
Ġun Ã¡n
la to
Ġsustitu irse
ĠPubl icaciones
Ġcostum bres
Ġcomerci antes
Ġpes ados
ĠORGAN ISMO
17 5
Ġfacul tada
Ġapor tadas
Ġari lo
ĠCON DUC
Ġ20 9
ĠArm ada
ĠH is
ĠDo y
Ġenfr entar
Ġreform ar
S ud
ĠRes istencia
Ġpolic ÃŃas
Ġconta bil
Ġha z
ĠD im
Ġes encia
Ġpropi etaria
Ġradiac tivos
Ġindirec to
Ġelabor adas
23 2
OG RA
fon ista
son a
18 9
Ġselec tivo
ĠCuesti Ã³n
Ġviv e
Ġfil ial
ĠcontinÃº en
ĠMala wi
ĠSem inario
19 73
re ga
ĠUltra terrestre
C Ã³mo
ĠP ON
ĠMU FACE
Ġsecues tro
br ic
ril es
ĠA CEP
Ġprede termin
ĠS IE
ĠÎ Ķ
Ġinclu yÃ³
Ġcor rig
Ġto mas
Ġinter ro
ĠCAR GA
ĠLiber aciÃ³n
ĠH erramientas
ĠNÃŃ ger
ĠD eg
Ġobten drÃ¡
Ġrepresenta tividad
ĠD AR
Ġform ando
Ġce dente
di vas
ĠAd junta
Ġdes ec
Ã³m icas
AR GO
Ġcab ina
ĠTit ular
Ġt rece
Ġjardin es
g encias
Ġresuel va
Ġexplo tar
Ġdiplom Ã¡ticas
ĠAses ora
ĠPr ÃŃn
D ES
Ġgener adas
Ġcoinci dir
ĠTurk menistÃ¡n
Ġautoriz arse
Ġtraspas ados
ĠR onda
ĠPrue bas
u dos
15 5
ĠFUN DA
Ġen cla
ĠCon voca
Ġacep tados
Ġgo za
Ġcolum nas
Ġrepe tir
Ï Ĩ
V ID
Ġpreval ecer
ĠVicepres identes
ban os
ĠREALIZ AR
Ġpar entesco
an ces
Ġgener ador
ĠANTERIOR ES
Ġpr isiones
Ġrepro duce
y Ã©ndose
Ġconven idas
Ġprohib idas
Ġpreve ÃŃa
escol ar
ĠO F
Ġregul en
ĠCO P
ĠexplÃŃci ta
ĠparÃ¡ metro
L I
ĠEx propi
Ġdesp ach
ĠSubra ya
Ġla na
Ġ19 3
Ġsecund arias
Ġah orros
Ġtradi cionalmente
ĠCÃ³r doba
2 25
ĠVel ar
Ġsin cer
Ġpas tas
Ġin tan
ĠDi Ã¡logo
Ġle trada
Ġcor ros
Ġsigui era
Ġdif undi
ĠPÃģG INAS
k h
Ġsusci ta
ĠFA V
ĠEuros istema
Ġasegur ados
Ġencomend ada
bil ite
ĠOCH O
Ġtraba je
he im
t adora
Ã± Ã³n
ĠUTIL IZACION
ĠTr aduc
ĠCons ciente
Ġob tuvo
Ġminor ÃŃa
re zas
ĠAGRICUL TURA
D IDA
ĠJu bilaciÃ³n
ĠAr ticle
ĠComp rende
Ġperjudic ar
Ġhis torial
Ġsup r
ĠSITU ACION
j ada
Ġparti d
Ġexclu ida
Ġvari ar
inclu ido
Ġregres ar
Ġfach adas
Ġserv ido
ec era
ĠVal le
Ġmecan izado
IZ A
ĠPrincip io
k m
Ġindemn izado
Ġincorrec ta
Ġunivers ales
Ġtradi ciones
ĠhidrÃ¡ul ico
15 2
ĠGi braltar
Ġcl oro
tr icos
ĠA ire
ĠDeclar aciones
ĠPro teg
Ġra ÃŃces
ĠEspecial idad
ĠELE MENTOS
ÃŃs es
Ġintens ific
ĠSEL EC
ĠA ER
Ġimpl icaciÃ³n
hi p
ĠHaci endas
can es
Ġre lo
Ġfirm ante
Ġfor al
ĠOBLIG A
ĠO tor
z Ã³n
Ġacuer den
fa be
Ġinter media
ĠNECES ARIO
i um
Ġdeclar arse
rue ba
a torial
Ġtrac tor
Ġautoriz arÃ¡
Ġcomba te
ĠVigil ante
23 6
Ġselec tiva
l ad
ĠUR BAN
Ġapar ente
Ġmas cul
m s
Ġpl iegos
Ġinvo car
Ġindeb idas
ĠÃ³pti mas
. âĢĶ
P P
ĠTaba go
Ġcomunic adas
Ġex pi
Ġarbitr aria
Ġencon trado
eg os
ital izaciÃ³n
por ta
Ġenvi ados
ĠMaes tro
Re al
Ġcar garÃ¡
24 2
Ġdesh ues
ĠS H
Ġproporcion Ã³
ĠJ ul
Ġasim ilados
Ġub icados
Ġenrique cimiento
V OS
Ġaclar aciÃ³n
Ġdes al
fam iliar
Ġan ci
IG O
Ġtrabaj ados
ĠNa turales
prim ir
U T
Y OS
Ġinform ando
Ġpr erroga
Ġmuer to
Ġdesp ren
Ġ Ïĥ
Ġvig Ã©sima
Ġenunci adas
ĠÃ Ģ
ĠÂ ¡
Ġdis uel
ĠfÃ¡ bricas
ch ip
ÂłÂł ÂłÂł
Ġ3 01
ĠConstitu ye
G UR
ĠECONOMI CA
ĠSamo a
u te
Ġexamin adas
ten ci
gr ada
14 3
Ġpre mis
Ġdibu jos
áĥĲ áĥ
ĠIN M
Ġinex ac
Ġcar ecer
Î¹ Î±
0 25
Â ·
er ciÃ³n
Ġ19 1
Ġtem or
ĠExper iencia
Ġdiscon formidad
uc ar
ĠPROPOR CION
Ġalfabe tizaciÃ³n
TI DO
Ġincom pe
ĠLIQU ID
d ina
Ġdeclar ante
Ġdin Ã¡mico
Ġal ba
Ġorganiz ativos
Ġconfirm ada
Ġconst arÃ¡
Ġco financi
Ġvo taciones
Ġabsor ber
Ġpro bada
Ġ19 6
Ġ22 4
ĠHA CE
enci ar
Ġgratu itamente
Ġcoinci da
Ġenar bol
ĠMÃ³d ulos
Ġitiner arios
ĠM Ã³vil
Ġapor ten
Ġrestring ir
a ta
ba ch
13 7
Ġimpa ctos
ti dor
CRI TO
ĠA un
ĠDeline ante
ĠLi teratura
19 2
ĠCONO CIMIENTO
ĠADU AN
ĠLamenta blemente
Ġsemej ante
form es
Ġotor gan
b rir
Ġa tes
Ġc uel
ĠU sos
Ġem pu
n ÃŃ
Ġre e
Al t
Ġadmi ten
ĠA RE
ĠPerson a
Ġimpu tarÃ¡n
Ġfund ada
Ġcu Ã¡n
Ġd r
Ġadap tados
Ġdocum entados
24 1
Ġespeci fique
Ġsubvencion able
ĠAsoci ado
Ġartefac tos
Ġesta cionamiento
ĠDON DE
ĠAN IM
ĠT ro
al la
ĠENTR ARA
Ġpresidi do
Ġcentr ar
Ġsust enta
13 9
Ġaisl ados
7 70
Ġb oletÃŃn
ĠMO V
ĠCIRC UNS
Ġnoti cias
ec ÃŃan
PER ACION
Ġpres encial
ĠF ic
19 74
Ġponder ado
Ġgmin y
or ama
Ġextra ctos
Ï İ
Ġal ber
ĠUN IDADES
Ġarmon izadas
Ġcooper aron
Ġaj eno
ĠTrans nacional
Ñ ĥ
Ġcontrol ado
ĠSolici tudes
ĠSaba dell
ĠPa ga
Ġde biera
ĠCOMPREN DE
Ġres cisiÃ³n
Ġ9 50
Ġacum ular
ĠlingÃ¼ ÃŃsticas
ĠE usk
Ġaument aron
Ġminusval ÃŃa
u th
Ġim ag
Ġdestin e
Ġproces ado
Ġabar can
ĠHidro carburos
3 18
Ġde preciaciÃ³n
Ġun idos
Ġponder ada
ĠVIG ENTE
AC CION
ĠÃ©tn ica
ĠEscal as
Ġdepos itado
5 50
Ġsustitu irÃ¡n
Ġlogr arse
Ġrepro duci
ĠAdo pciÃ³n
Ġadjun tar
ĠM UES
ĠCor uÃ±a
Ġatribu idos
ĠBar b
Ġestatu taria
Ġvalor aciones
Ġtem Ã¡ticas
Ġidentific an
Ġexperim entales
ome traje
Ġprepar adas
ĠDe cimo
Ġsobrepas ar
id in
Ã± ar
Ġesti lo
Ġenvi arÃ¡n
ĠP ERO
Ġoper arios
Ġsa ben
Ġr um
Ġexce dente
Ġarquitec tura
ĠINVESTIG ACION
v or
ĠNO MB
Ġequip ados
Ġgrad uaciÃ³n
ĠPubl icaciÃ³n
ĠcatÃ¡stro fe
Ġ19 49
Ġportu arias
ĠNorm alizaciÃ³n
g ul
Ġcumplir Ã¡n
ĠRELA TIVAS
>> >
Ġinde f
Ġqu o
ĠP ilo
Ġrecomend adas
Ġ( âĢľ
ĠUN IDO
Ġlim ite
17 8
23 1
Conse jo
Ġimplic arÃ¡
Ġcuanti tativo
Ġadher ido
Ġfacil idad
Ġalmid Ã³n
Ġdespo jos
Ġal ea
Ġcom edor
Ġ19 7
Ġenmend ada
Ġdiner aria
ĠM undo
Ġindi stin
ĠMINISTR OS
Ġdetec tadas
ĠFac tor
Ġtu tores
Ġburo c
19 4
Ã©pti do
M Ã©
ĠIn tens
24 8
Ãł s
man o
Ġremo ciÃ³n
40 6
ĠTur no
Ġsacar osa
Ġpes cadores
Ġaprue ben
Ġto ler
ĠCrim inal
Ġpropon iendo
or ÃŃas
Ġvari ante
Ġmol de
Ġexhaus tivo
b inas
Ġdiver sa
Ġfun diciÃ³n
ril los
14 5
Ġdesp rendi
Ġenc endido
f el
Ġconsagr ados
Ġacumul ados
Ġllam ar
ĠInfraestruc tura
Ġtele fonÃŃa
ĠJ es
Ġsatisfac torio
Ġev asiÃ³n
Ġsir va
Ġsubsidi ariedad
Ġprecis an
ĠTECN ICO
b ase
Ġcu bra
ĠConf lic
ĠDep Ã³sitos
Ġpreten dida
ĠPROP IE
ĠradioelÃ©ctr ico
15 1
Ġsatisfa ce
Ġformul arÃ¡
Ġdesemple ados
Ġsemej antes
di que
FER ENCIA
Ġro dante
Ġaprob arse
Ġdem oras
ĠCic lo
ĠR ama
Ġdelim it
Ġ------------------------------------------------ --------
Ġne er
Es ta
Ġpropa ganda
Ġsupon drÃŃa
Di ario
ĠAnal ista
ĠportÃ¡ tiles
ĠplÃ¡s ticos
Ġaconseja ble
ti mar
Ġpar es
Ġdocum entales
Ġeval Ãº
Ġes lo
ĠIn h
ĠDICH OS
ĠORDEN ACION
ĠTRIBUN AL
ĠAf irma
Ġtor turas
Ġtrans nacionales
Ġconstitu ÃŃa
ĠL in
Ġd ue
Ġcondicion ado
Ġsub alter
Ġpu reza
In forme
Ġtuber culosis
do l
ĠM enos
tas eme
IN TA
UD D
ĠAline ados
Ġa zar
Î· ÏĤ
Ġlater ales
Ġcali braciÃ³n
14 4
ĠLoc alidad
br ados
ig ir
70 4
Ġch inos
Ġreno var
Ġaliv iar
tr amar
Ġgener adores
ĠBU QUES
Ġextraju diciales
g ener
ĠMETO DO
Ġ26 0
ĠEduc ativa
Ġpo ca
Ġver des
Ġpers istentes
Ġdesembar que
Ġrecol ecciÃ³n
Ġase qui
Ġa tro
14 6
Ã¡ndo les
Ġrecip ro
Ġdis co
Ġirre vers
Ġrefer ÃŃa
ĠMil itares
an i
Ġcalcul ados
26 1
D er
b y
Ġprocedi mental
ICA CIÃĵN
a pro
ĠC IF
Ġub icado
CI N
Ġinform aron
Ġclas ificar
Ġrevalor izaciÃ³n
ĠenÃ©rg icamente
Ġt Ã©
ĠB ri
Ġ22 1
Ġauto ma
Ġ8 47
ic k
Ġdes igna
Ġocup ada
Ġingres ado
ĠFORM ULA
ĠComis arÃŃa
P r
ug h
ĠV OL
ĠI E
ĠCO LE
Ġconsta tar
ĠPrÃŃn cipe
19 67
ĠPRO DUCI
ĠDeber ÃŃa
Ġmon opol
Ġadap ta
Ġpec uni
s em
us tra
24 3
ĠEnerg Ã©tica
Ġ33 8
ĠPala u
ed ora
Ġcaud ales
ĠDero gaciÃ³n
ĠM all
anci ales
Ġcontin ental
Ġcon ti
Ġpose edor
Ġreserv adas
Ġradi que
ĠVil anova
ĠIndic adores
] -
Ġconsider Ã¡ndose
ude dad
6 50
Ġo vino
Ġperman ezca
ĠOm Ã¡n
cu al
* ,
ĠJ uego
Ġatra er
Ġmon tante
Ġcons ten
Ġca fÃ©
Ã©tr ica
Ġindu da
Ġth is
Ġ3 20
Ġminor istas
ĠLÃŃ mites
D el
ĠBibliotec a
Ãĵ D
v ial
ĠCon tribu
ĠGab Ã³n
Ġcertific adas
ĠAp rendiz
Ġsencil los
ĠN ingÃºn
33 1
Ġno ciÃ³n
Ġanual idades
Ġdiner arias
ĠY A
Ġdiplom Ã¡ticos
Ġesco g
ve la
Ġcre adas
Ġconten ÃŃa
ĠJurÃŃdic as
4 10
Ġprocur ando
da ba
ĠTEN DRAN
Ġmu ta
Ġfr uc
MO V
ĠCA MB
Ġconce dente
Ġmer ecen
te drÃ¡
19 75
Ġampli arse
ĠOS CE
O rig
19 3
ĠVis tos
ĠASO CI
Ġconsol id
ĠA v
ĠREP U
Ġprescri be
H E
ĠCR C
Ġdenunci ar
Ġestima toria
Ġdisminu yÃ³
hidro xi
ĠCUAN TIA
Ġindivisi ble
ĠMal divas
ĠTRANSI TORIA
ĠA pelaciÃ³n
Ġ3 26
ĠH Ã¡bitat
Ġpropon ga
Ġaro mÃ¡
ĠE qu
16 9
an io
Ġins istir
Ġ30 8
se le
Ġcin tur
igi ene
Ġfl ora
ĠEn c
ĠNa tions
Ġfabr icar
ĠF irma
30 9
ici embre
ĠO TAN
ĠOblig atorias
di entes
Ġelabor e
Ġun ificaciÃ³n
Ġconstitu yendo
Ġsospec ha
ĠSÃŃr vase
Ġan tis
ĠsÃ³l idas
ĠMEC AN
ĠFrances a
19 1
tras burgo
leg o
Ġinfrac tor
O rgan
Ġintim idaciÃ³n
ĠINTRODUC CIÃĵN
Ġasign e
Ġcoerci tivas
fic acia
ĠCompon entes
ĠL ec
ĠRe des
Ġat entado
Ġplen arias
60 6
ĠautÃ©n tico
Ġhil os
ĠV ÃŃ
Ã³l ico
I BLE
Ã©n ica
Ġmo tiva
Ġintrodu jo
tur ar
Ġdes l
il ler
Ġay er
end arios
ĠfarmacÃ©u tico
Ġvendi dos
Ġver ti
áĥ Ŀ
ĠalcohÃ³l icas
Ġrefug io
Ġconfigur ado
Ġdero gan
ĠSub grupo
ĠV AC
ĠAssocia tion
Ġ(* ).
IV O
ĠL EC
Ġg afas
Ġrepe ticiÃ³n
Ġina ug
Ġplurian uales
ĠM ac
ĠApl ica
gru pos
ĠEmbaj ada
Ġproduci endo
Ġfitosan itario
ĠV a
Ġmal trato
ĠTERC ERA
ĠC LA
Ġprac tica
Ġqui ebra
Ġla udo
em bar
Ġdisp ensaciÃ³n
Ġ21 3
Ġsencil lo
Ġaline aciÃ³n
ĠV ENTA
23 9
Ġpo ur
Ġil ustr
ĠSuper iores
ĠDE NO
ĠRa cismo
ĠEnferme dades
ER SE
Ġapo yan
Ġins iste
Ġcap itÃ¡n
Ġsuf ran
ĠepÃŃ grafes
2 18
Ġper noc
Å Ħ
Ġarmon izado
bi ble
ĠCumpl ir
Ġevidente mente
p riv
Ġc ep
Ġelem ental
Ġexpor tados
Ã© sel
IN S
den omin
Ġutiliz Ã³
Ġsuces os
d Ã³s
Ġm ur
Ġcumpl irÃ¡
un ciones
ĠDELEG ACION
48 3
Ġantece dente
ĠTen iente
ĠACTU AL
am Ã©rica
ĠA Z
ÃŃ en
ĠB om
ĠRE CIB
Ġintegr arÃ¡
Ġanul ada
14 7
ĠT rea
ĠPre gun
Ġextingu ir
ĠExpropi aciÃ³n
Ã ¦
Ġaten didas
Ġdedic ar
Ġacog idos
Ġfran ja
C ol
ĠF es
Ġpror roga
G M
OS O
ĠPlan ta
Ġusu arias
Ã³g rafo
Ġconven cido
ban a
Ġhabilit ados
Ġusufruc to
Ġdisp uestas
Ġco ex
Ġsorte o
t Ã¡r
ĠEx am
ĠPAIS ES
ĠmetÃ¡l icas
Ġdiagnos tic
ĠA cep
Hospital et
P RE
Ġcontempl ar
Ġis o
Ġimpug na
ĠFern ando
de stin
Ġsuministr ados
ĠEXTR E
Ġ23 6
Ġguar den
Ġform arÃ¡n
Ġjudicial mente
Ġreclam ada
Ġreduci dos
ion s
Ġpr z
ĠIg lesia
Ġsub direc
Ġcesion ario
Ġpropon drÃ¡
ĠvÃ¡lv ulas
Ġconsign arÃ¡
Ġconstitu yÃ³
pro tecciÃ³n
Ġhi per
ĠO OPS
Ġincorpor arÃ¡
ĠINVER SIONES
25 2
Ġmos trÃ³
ĠCompeti tividad
ĠPrim a
Ġdep ur
a cionales
15 3
Ġg uer
Ġremol ques
u ga
ĠBal canes
H C
az ilandia
Ġcos teras
Ġasegur arÃ¡
TIZ ACION
e is
u dismo
Ġpues tas
Ġcuestion arios
ĠPROYEC TOS
Ġintroduci dos
Ġdiferenci ada
ĠSOCIE DADES
E m
Ġsol os
Ġcontr aste
ĠSocial ista
Ġapl azar
Ġrespe tado
Ġre versiÃ³n
Ġcu idad
Ġad yacentes
Ġampli aciones
Ġ99 9
ent amos
Ġreg ad
n utriciÃ³n
ĠEN VAS
ĠAm bos
ĠNivel es
Ġcondi cional
Ġevacu ado
Ġhipotec a
ĠESTADÃįS TICA
gu Ã©s
Ġfi esta
Ġinici en
15 8
Ġv on
C LA
I talia
Ġ18 8
ĠDon de
Ġconval idaciÃ³n
ac tivos
Ġmol uscos
Ġextender se
Q a
ĠautÃ©n ticos
Ġuniform idad
ĠFores tal
ari zar
inis ta
ĠA pertura
Ġcuanti tativa
Ġsur jan
c encia
ÏĦ Î¿
Ġanaliz a
Ġrecipro cidad
l ine
Ġca denas
19 6
Ġclasific arÃ¡n
Ãģ S
ĠMar tin
for t
ĠAlcal de
d ando
ĠNo tificaciÃ³n
Ġch inas
ĠCÃ¡ diz
Ġcontr arres
Ġanal ogÃŃa
g io
Ġlo go
ĠSem estre
Ġge omÃ©tr
Ġintrodu zcan
aman ca
ĠSur inam
Ġres idenciales
ĠAc om
ĠOrden ar
ĠPROYEC TO
ĠENSA YO
O tros
Ġcu ero
Ġpa garÃ¡
trÃ³ picas
ĠFin es
ĠCo pia
Ġgrav Ã¡menes
Ġintr ÃŃns
Ġnov edad
Ġ tos
ĠT OR
l ico
eg ue
ER VA
ri Ãł
Ġor aciÃ³n
Ġref in
Ġun der
MI D
og en
Ġdeclar an
ĠEN SE
Ġ18 6
Ġtem Ã¡tico
ĠDENO MIN
ĠInter ventor
DI ENTES
Ġj ud
Ġpens amiento
ĠseÃ±al e
ĠCONS ERV
ĠÃ¡rbi tros
Ã³m eros
15 9
ĠLa o
ĠV ÃŃa
Ġab ona
... ".
Ġlog ÃŃstico
23 4
Ġatra c
Ġacredi tarÃ¡
Ġmaes tro
ti ce
Ġaten dido
ĠTe orÃŃa
ĠP P
Ġmicro bi
me z
Ġconfer idas
Ġarmon ÃŃa
Ġpro bados
ĠCompro bar
qu idos
on ga
ĠL MR
ĠPREV IO
ĠD iciembre
ĠA le
26 6
Ġmu tan
ĠCh r
ĠE dad
Ġtrans misi
ĠReal iza
16 3
Ġpiel es
Ġdesisti miento
L o
ĠCAL IDAD
Ġantece de
ĠORGAN O
is pado
Ġadi estramiento
ĠGradu ada
in f
Ġevalu able
ĠPL H
c urso
Ġvia bles
Ġsuces ivamente
Ġ________________ ________________
Ġes cin
ĠEn viron
Ġdesestim Ã³
Ġde ra
ĠSAN IDAD
tra tos
ĠSAL VO
Ġdesem bo
Ġsuplem entarios
ici dio
EN TR
Ġotorg arÃ¡
Ġplus es
19 5
Ġd roga
Ġexamin ara
Ġcalcul arÃ¡n
Ġracional izar
ĠS G
Ġreg eneraciÃ³n
Ġhabilit ante
ĠanalÃŃ tica
ĠRei tera
et y
60 8
Ġver ificaciones
Ġop ina
Ġdesestima torio
Ġ5 000
Ġcr on
' ,
Ġgarantiz adas
Ġsubsan ar
Ġnot arial
ĠI F
Ġexamin ada
ĠRE CIP
Ġco g
Ġimplic an
ĠMon tes
ĠB es
14 2
ti es
ĠEcu atorial
CE U
ĠFIN ALES
Ġdiagn Ã³s
ĠAc tas
Ġcol ecciÃ³n
Ġrue da
ĠT ENER
ĠcÃŃr culo
Ġbas arÃ¡
Ġescen ario
Ġfacil idades
ĠCN MV
Ġpreca uciones
b ri
Ġsuperfici al
Ġintel ig
Ġreca uda
Ġencom ia
3 10
Ġap render
Ġocasion ar
Ġcompensa torios
et s
Ġpatr ones
ĠOS ACT
Ġjuz gar
Ġprepar ada
Ġmus ical
Ġin cul
Ġresol viÃ³
Ġbre cha
ĠA DA
Ġclor uro
Ġobede ce
Ġpasa je
ĠEuros tat
Ġimpar ten
ĠNUE VA
ĠCom entarios
Ġles ion
14 8
Ġcal cio
ĠUn i
ĠE pÃŃgrafe
Ġtra e
dic tamen
Ġreligios o
Ġsubordin ados
Ġcompar ecer
Ġrad ica
ĠH uel
ĠfarmacÃ©u ticamente
Ġinterven gan
ĠAC O
Ġped ÃŃa
en cas
fan um
vi ales
ĠCE PE
ALE ZA
ul t
ĠPRE CIO
ĠGobern ador
ĠASE GUR
Ġdecen ios
Ġregis tra
Ïī Î½
ĠM ÃŃn
ĠFortal ecimiento
ĠDISPOSI TIVO
Ġabsolu toria
ĠIn cluso
Ġpotenci aciÃ³n
Ġgran o
Ġinal ien
Ġ13 93
Ġprecis en
ĠCAS TILLA
Ġrevo car
erras sa
r y
Ġmon te
Ġzo osan
Ġago tan
ĠEs trasburgo
Ġs hall
Ġcomun ique
Ġ100 6
or s
is tido
ĠCOMER CIAL
Ġtur co
Ġafirma tivo
Ġinh ib
ĠEn um
Ġconcentr ado
Ġasum a
CI S
ĠRe fer
ĠRegul adora
3 75
ĠOr gÃ¡n
Ġrefle je
Ġpac ÃŃfico
ĠNues tro
Ġin minente
Ġfij en
ĠCAPI TAL
ĠES TARA
ĠF LU
Ġapar ecer
ĠUsu arios
ĠADMINISTRA TIVA
Ġesta mp
Ġexamin aron
Ġvo tantes
Ġse des
18 5
Ġgen Ã©rico
Ġporcent uales
Ġlocal idades
ĠACRE DI
Ġproxim al
ĠM is
Ġdisfru tado
Ġsatisfec ha
Ġinde termin
tru ir
ĠDICH AS
Ġcom idas
cion arÃ¡
Ġorganiz ativo
Ġsitu arse
ĠBel ice
ec as
Ġdiscrimina toria
oc ÃŃa
Ġdef ensor
ĠMer cante
Ġasc endientes
Ġmedi ador
dor i
ĠPRESID ENCIA
Ġdeneg Ã³
Ġ22 7
Ġimpugn ados
Ġpre ma
26 5
Ġan ten
til lo
Ġgener en
Ġtra tarÃ¡
Ġperm uta
til os
ADO RA
Ġve an
ĠAmpl iaciÃ³n
Ġrelacion a
ĠTempor al
Ġcon tadores
Ġprim arios
ĠDer iv
Ġelabor arÃ¡n
Ġapreci arse
ĠV arias
Ġbar co
L ES
i tis
ĠIN E
Ġtip ificadas
Ġmutan dis
Ġtraspas os
ĠA spir
ĠENSE Ãĳ
ĠArquitec to
DI O
ĠI tal
ce a
ĠCONDI CION
en z
ĠT ip
Ġresuel ta
G u
as tos
Ġfigur arÃ¡
Ġmone tario
Ġvi udedad
Ġconvo cada
60 7
Ġdelic tivos
Ġsub tema
Ġrazon amiento
Ġplante ados
th yl
Ġcla ves
Ġin habilitaciÃ³n
Ġna ciÃ³
territor ial
Ġinv esti
Ġenla ces
ĠESPAÃĳOL A
ĠNATUR ALEZA
Ġsinies tros
ĠCons enso
ĠAdop tar
P NUD
Ġd ona
V er
Ġrevis ta
Ġcalific a
Ġfinaliz arÃ¡
Ġpul ver
ĠEnfer merÃŃa
Ġpor tal
28 3
Ġasci enden
Ã³ lar
Ġ22 8
ĠCre emos
on do
Ġna ve
Ġtan ques
M an
be ta
ICA MENTE
ib rios
Ġdifer encial
24 5
ĠGR ADO
ĠTRANSPOR TES
ĠDis tin
16 2
Ġan ualidad
16 8
Ġdeduci do
Ġdro g
uds man
Ġmas iva
Ġdesp i
ĠF MI
Ġradi aciones
Ġantic on
m amente
Ġgr asos
ĠplÃ¡s ticas
ĠSUPERFICI E
o cial
Ġpsic olÃ³gico
Ġexcel encia
ĠG A
ĠH igiene
D S
ĠSUB DIREC
Ġprote ÃŃna
Ġorden adores
Ġacum ula
Ġincon di
Ġinterponer se
SS TC
ĠFON DO
Ġcab ida
Ġsospechos os
Ġabon ada
Ġcarbur ante
Ġm uel
Ġprepar Ã³
ĠDi fusiÃ³n
Ġcens ura
Ġpea je
Ġcomba tientes
Ġdistor siones
ĠHuman itarios
Ġconserv arÃ¡
Ġcolor antes
4 25
Ġ19 51
ĠCOMP R
CO O
l ores
Ġhid r
Ġpromue va
Ġemple ando
ĠAde cu
Ġpermiti dos
Ġsancion adores
Ġsuplem entarias
ĠF ra
Ġmedi e
ĠBos ques
ĠCin co
ben zo
CEP TOS
n y
Ġfrac aso
or ge
ĠMedi da
ĠEXTERIOR ES
T exto
Ġn ula
Ġconfigur an
ham as
Ġhabilit ado
19 7
ĠPUE DA
Ġredis tribuciÃ³n
Ġnegoci adora
Ġextraju dicial
i fiquen
chip rio
Ġdesta can
Ġcompeti tivo
Ġescuch ado
Ġno torio
ĠGesti onar
Ġfrac cionamiento
tra cto
ĠH os
23 7
der no
ĠIndustr iales
Ġcompu tar
Orig inal
ĠI G
Ġobserv arse
Ġaprovision amiento
ĠCON CEPTO
3 13
Ġsubsan aciÃ³n
ĠE AC
ĠB hu
R P
x tas
Ġmanten iÃ©ndose
Ġpon entes
COR POR
ĠF lor
Ġfr ustr
ĠJa ume
Ġsub com
ĠseÃ± ores
Ġexplica tiva
Ġpeligr oso
ich t
su per
e uros
Ġaf tosa
Ġci tan
or ios
br anto
ĠCONS UL
Ġdispar idades
ĠLim pieza
ĠLABOR AL
Ġfacul tativa
3 30
TERI AL
Ġcometi da
ĠE ra
24 9
ĠMan i
UR O
Ġprogres iÃ³n
Ġasigna tura
Ġ22 6
ĠConsider amos
W A
ĠP ie
CE CA
Ġfra ud
Ġprolong ada
Ġaument arÃ¡
Ġoblig an
Ġformul arse
46 2
Ġlimit arÃ¡
Ġlicu ados
ĠTra tÃ¡ndose
Ġmuta tis
Ġcumplim entado
ci entemente
Ġanunci Ã³
Ġsig las
ĠÃī ste
ĠP un
Ġaz ucar
Ġminu to
Ġconsign ar
ĠADICION AL
Ġposi blemente
Ġrespon diÃ³
pu a
Ġepide mia
ĠL T
Ġcom arcal
Ġexamin an
Ġproporcion adas
ĠEfec tuar
Ġotorg ue
ĠAdquisi ciÃ³n
M on
g ara
Ġcorre laciÃ³n
ĠSel va
Ġdesap ariciones
Ġsub es
Ġevalu ado
ĠÃģ reas
ĠFR U
cul turales
ĠUNIF EM
Ġejecu tan
Esp a
Ġenfer merÃŃa
Ġdesag reg
Ġre dobl
Ġpa tio
Ġmer cen
Ġ25 6
publ icado
Ġsubsidi ario
Ġsit Ãº
ĠFran z
ĠvÃ¡l idamente
ĠautonÃ³m icos
Ġr onda
Ġsub yacentes
tan me
ĠfarmacÃ©u ticas
Ġcar pinterÃŃa
Ġdedic an
Î ²
Ġreflej ado
ĠAQUEL LAS
Ġmateri almente
Ġsim b
Ġred un
ĠVAL ORES
Ġel og
48 1
Ġin cu
Ġsoci etarias
Ġportu ario
Ġgri ego
Ġincum ben
Ġor nam
Ġjuz gados
U ALES
Ġaver igu
Ġatmosf Ã©rica
Ġpas ada
ĠsatÃ©l ites
ĠME Z
Ġ24 8
Ġacu Ã¡ticos
Ġdi era
Ġinf antiles
60 4
Ġconsign ado
as istencia
Ġco ordina
Ġrestring ida
ĠDESE MP
ĠS T
ĠW il
ĠS am
ĠEsta bilizaciÃ³n
40 9
S AS
ĠD ol
Ġfund adas
ĠI ma
ĠFA MIL
Ġrecon versiÃ³n
Ġcuadr ado
MI CA
ĠhÃ¡bi tats
mi em
ĠAlma cen
Ġestereo tipos
Ġdelim itar
ag ra
Ġconce dan
ti fique
Ġex ca
ĠCAL C
Ġ eros
Ġpun tuales
Ġa re
tual izaciÃ³n
Ġdelim itado
Ġver Ã¡
Al em
Ġmon etarias
ĠV ino
Ġrela to
Ġrevis arÃ¡
Ġexig irse
ĠÃ¡to mo
ĠJ an
ĠAl co
Ġmoder na
ĠclÃ¡s ica
Ġ7 208
Ġv estuario
Ġsusp ens
ĠCa tas
Ġind ÃŃgena
Ġfraud ul
Ġ19 64
ot ho
Ġimpor ta
Qa ida
a vier
Ġo vina
Ġejecu tados
ĠPla za
Ġsufr idas
Ġrepro ducir
ĠLIS TA
16 1
Ġconcesion aria
17 6
Ġpais aj
ĠAPLICA CIÃĵN
Ġf usiones
Ġfe dera
ĠR IRPF
Ġps iqui
ĠmarÃŃti mos
b ÃŃa
ĠH R
ĠBA JO
tam e
Ġcomplement ariedad
38 8
Ġins a
am as
Ġdecre tos
Ġestudi arÃ¡
ĠM W
Ġtan tas
ti dad
Ġexce derÃ¡
Ġter mo
Ġfom entando
ĠC AD
ĠDEB EN
ĠB rigada
Ġprom ulg
Ġpsiqui Ã¡tr
Ġparticip adas
Ġsecre tos
ĠEstratÃ©g ico
Ġimpre gn
Ġest ancias
ĠNacional idad
vol ta
( *
tes e
Ġa ma
Ġidentific ativos
Ġimpru dencia
Ġdeven garÃ¡n
Ġf iduciario
ser es
8 50
ĠpÃºbl icamente
ĠEscol ares
Ġinvestig adora
I s
ĠgrÃ¡fic as
ĠC ECA
ĠD ibu
N aciones
Ġimpar te
ON AS
cri be
Ġf Ãºtbol
Ġ27 6
Ġhall arse
Ġfech ado
Ġtur ÃŃsticas
ĠTRABAJ ADORES
Ġgo zarÃ¡n
Ġkil Ã³metro
Ġpotas io
Ġvalios a
Ġadmiti rÃ¡
Ġpas arÃ¡n
ĠsocioeconÃ³m icas
pon es
Ġrefle jo
ob je
ĠEDUC ACIÃĵN
Ã ¢
Ġson ora
Ġden tal
Ġas ambleas
ĠCU ALES
ĠSEC TOR
Ġque bran
ĠÂ» ,
Ġadvers as
R U
Ġins umos
0 70
26 4
ĠEN CU
Ġmol ecular
v eg
Ġsensi bilizar
ĠVIV IEN
ĠP AL
Ġinm uno
Ġantijur ÃŃdic
d arÃ¡
Ġcal endarios
Ġapor tÃ³
22 9
Ġpar o
Ġgrad ualmente
Ġimpon ga
M ER
Ġur anio
Ġ23 1
Ġdi ciendo
++ ++
ten ciones
Ġconden as
Ġjusti precio
I m
Ġlleg uen
Ġlevan tar
Ġal ianza
Ġsatisfac toriamente
Ġcerci or
ĠR eno
ĠM OL
ba te
Ġsosten er
ĠES O
ĠDeg rad
iz adora
Ġestadouniden se
or ados
Ġprecep tivos
ĠTele visiÃ³n
Ġmata dero
Ġn erv
ĠP s
Ġimpu tarse
Ġex hibiciÃ³n
Ġcap it
Ġvis uales
ĠDes e
Es te
Ġcom pone
Ġderiv ar
Ġdese amos
ĠL ucÃŃa
Ġoc urr
Ġselec tivos
Ġprecurs ores
cla ve
ber e
ĠComp any
ĠÃ³pti mo
Ġsubcontra taciÃ³n
Ġbrev emente
ĠPERMAN ENTE
2 17
Ġorigin ados
ĠADMINISTRA TIVO
ĠhidrÃ¡ul icos
Ġaro matiz
Ġ24 4
Ġprodu jera
Ġconstru ido
Dis posiciones
ĠTÃ©r mino
Ġob vio
16 4
just es
Ġcontra tada
ĠEn ten
ĠÃģ cido
ĠSal arial
3 60
C or
Ġvalor izaciÃ³n
ĠIN CRE
ĠF ig
Ġejercer Ã¡n
Ġalim ento
Ġcompar tido
Ġneces iten
Ġdispon iendo
Ġtermin ada
ores taciÃ³n
ĠCon tribuciones
Ġconsagr ado
in adas
Ġo u
Ġextrac tivas
iz arÃ¡
Ġasign an
28 5
bric antes
ĠB adal
ĠP eti
ĠEuro pol
ĠCORRESPON DE
Ġtrac tores
Ob serv
Ġk uwa
Ġdul ce
ĠCE L
ĠEC U
Ġpaque tes
ĠBenefici arios
ĠLlev ar
ĠRESUL TADOS
g or
w ar
Ġafirma ba
Ġbenefici ado
ĠAMB IENTE
to xi
ĠFoto copia
Ġ3 75
Ġcr isti
25 8
Ġinfec ciones
Ġcre er
bili taciones
Ġdelan tera
ĠINFORMA CIÃĵN
ĠAero puer
en za
ĠAUTONO MAS
ist Ã©m
ĠBhu tÃ¡n
Ġconf i
Ġa pe
Ġpan el
ĠINFORM ES
Ġsuger encia
ĠCATEG ORIA
Ġcons istan
âĢ¦âĢ¦âĢ¦âĢ¦ âĢ¦âĢ¦âĢ¦âĢ¦
il ancia
ĠBa hamas
Ġpreten dan
Ġcolon iales
Ġsu ficiencia
ĠAs ignaciÃ³n
Ġdren aje
ĠBur gos
ĠAY UDAS
ĠV enta
Ġdistribu ye
ĠEduc ativo
25 4
ĠRa fa
Ġsuprim irse
Ġf Ã©cula
Ġdemand ada
48 2
Ġadmitir Ã¡n
TAN DO
ĠFom entar
ue ble
ĠVEHIC ULOS
ID E
ĠIden tifica
ĠM c
Ġsub artÃŃculo
Ġhos telerÃŃa
Ġger ente
ĠInter eses
Ġlucra tivos
Ġ Ã©n
ĠSurinam e
n gel
Ġex temporÃ¡n
edi encia
Ġconten edor
ĠPa tentes
ĠsocioeconÃ³m ica
Ġsu yas
ĠS P
ĠM un
eran cias
ĠespectÃ¡ culo
ĠT errassa
Ġsi rio
Ġbi olÃ³gico
Ġ23 3
tiv es
Ġti r
Ġcar tu
Ġsal ientes
Ġconvier te
Ġre ad
der s
um as
Ġr up
Ġtranspor tistas
Ġpropor ciones
Ġ+ ++++
Ġtan tos
Ġhar ina
Ġrec urrido
Ġc Ã¡ps
ÃŃ tica
ur ÃŃa
Ġexces os
a dern
Ġedi torial
ĠPen as
TIN A
Ġdecim ales
ĠSan itario
Ġliqu id
Ġganader os
ĠCOR POR
Ġ `
Ġgesti ona
Ġsufrag io
ĠcÃ¡rn icos
ĠPRO CE
Ġrevis tas
ĠEXA MEN
Ġintracomun itarios
n s
ist ad
24 4
26 7
Ġsepar ar
ĠConsum idores
Ġfacul tado
Ġm ir
pa ta
IS TA
Ġdi ariamente
Ġcas co
GU A
ĠDa vid
ĠA portaciÃ³n
Ġv icio
ĠÃºn icas
Ġen seres
Ġdemand antes
ĠD al
26 3
u ario
Ġal deas
9 50
ĠBoliv ariana
Ġadelan tos
ĠSindica tura
Ġev iden
ĠS p
ĠM es
Ġimprevis tos
ĠÃ³x ido
jo z
Ġpresupues taciÃ³n
ci dentales
Ġintroduci da
ĠIndemn izaciÃ³n
das e
Ġven gan
Ġsuprim ido
ĠPE TI
Ġmanz ana
ĠTraduc ciÃ³n
Ġdestin arÃ¡
Ġfij ando
Ġinvo cado
Ġindemn izados
b udsman
g il
EL EC
Ġte tra
ĠL lu
Ġadjudic ado
Ġ2 99
ĠO ce
ĠPrÃ©s tamos
ĠIN CORPOR
Ġsan gu
Ġpe or
Ġproceder se
Ġde st
Ġpro tagon
ĠV eg
ĠTERMIN OS
di visiÃ³n
ĠSISTE MAS
ĠnÃŃ quel
Ġcoinci dencia
Ġobr an
ii i
bl an
Ã² s
Ġe f
ĠC ent
Ġil ustra
ada joz
Ġaero portu
Ġimpul sa
Ġadoptar on
% ),
Ġes clar
Ġrem edi
fas is
mi tte
Ã¡s er
Ġab an
Ġoptim izaciÃ³n
Ġintervin ientes
Ġimpor tadas
Ġ25 3
ĠTIT ULAR
Ġp ura
Ġf ar
ĠC lar
ĠCU ANTO
ĠFu entes
Ġ19 61
Ġplan taciones
ur t
ĠCon clusiÃ³n
29 6
Ġtransbor do
O fici
Ġorden anzas
F ORM
Ã¡s ticas
Ġaten derÃ¡
Ġdepen dan
Ġdenom ina
Ġ6 50
LA M
Ġvuel va
ĠC CP
Ġsecre tarÃŃas
Ġdesta cando
Ġpatrocin ado
ĠAN UAL
ĠÃ¡rbi tro
ĠCOMP ON
ĠC orn
ĠL lor
Ġseleccion adas
Pro grama
Ġcon tador
Ġdiplom Ã¡tico
ĠAsigna turas
ĠPRO CESO
ĠDig ital
ĠP UESTOS
ĠAb dul
Ġmayor itaria
Ġbeneficios as
ĠRo ca
ĠP rac
TU AL
Ġgas olina
Ġalcan zarse
ĠFE D
T T
Ġ3 10
ĠNue vas
Ġviol entos
Ġparticipar Ã¡n
Minis terio
ter s
Ġretribu tiva
Ġrecib os
Ġâĸ ª
Ac uerdo
Ġtraza bilidad
Ġseg mentos
Ġvi ta
ĠU s
Ġpa to
Ġregul aciones
Ġ19 60
3 23
Ġres iden
ĠT UB
Ġsigui eron
Ġconstitu tiva
0000 6
Ġcompr adores
Ġ26 8
V III
Ġentre gadas
ĠCarre tera
X IM
ue tes
Ġca v
Ġo g
ĠADA P
Ġc Ãºb
ĠV ida
Ġbo vino
Ã¡ tiles
Ġgra va
Ġund Ã©cima
Fran cia
ĠACI DO
Ġkuwa itÃŃ
ĠAl i
Ġhaber lo
Ġplas m
ĠhÃ¡bi tos
Ġinterf az
Ġub icadas
ĠAPROB ADO
Ġtor n
Ġbre ves
ĠCap itÃ¡n
Ġmatric ul
ĠCOO PERACION
IV OS
ĠSum inistro
c ÃŃas
Ġ24 2
17 3
ĠCO LO
Ġint enta
ĠCES PA
I TA
ĠT Ãī
Ġcol ind
Ġayud arÃ¡
ĠCon tr
Ġder ram
til l
t ton
ĠPRES ION
Ġincrement arÃ¡n
ĠDESTIN O
Ġtransfer ido
ĠCompro baciÃ³n
ĠSa int
ĠC esiones
ĠAc ces
[...]
